{"</s>": 0, "<unk>": 1, ",": 2, "\u2581the": 3, "\u2581\u0627\u0648\u0631": 4, ".": 5, "\u2581\u06a9\u06d2": 6, "\u2581and": 7, "\u2581\u06c1\u06d2": 8, "\u2581(": 9, "\u2581of": 10, "\u2581\u0633\u06d2": 11, "\u2581\u06a9\u06cc": 12, "\u2581\u0645\u06cc\u06ba": 13, ")": 14, "\u2581to": 15, "\u2581\u06a9\u0648": 16, "\u2581you": 17, "\u2581\u0646\u06d2": 18, "\u2581\u06a9\u06c1": 19, "\u2581\u0627\u0633": 20, "\u2581\u06c1\u06cc\u06ba": 21, "\u2581is": 22, "\u060c": 23, "\u2581\u0627\u0646": 24, "\u2581a": 25, "\u2581in": 26, "\u2581\u062a\u0648": 27, "\u2581\u0648\u06c1": 28, "\u2581\u06a9\u0627": 29, "\u2581\u067e\u0631": 30, "\u2581they": 31, "\u2581that": 32, "\u2581\u062c\u0648": 33, "\u2581them": 34, "\u2581\u0627": 35, "\u2581\u062a\u0645": 36, "\u2581\u06c1\u0645": 37, "\u2581not": 38, "\u2581\u06d4": 39, "\u064f": 40, "\u2581for": 41, "\u2581will": 42, "\u2581Allah": 43, "\u2581\u0646\u06c1\u06cc\u06ba": 44, "\u2581\u06cc\u06c1": 45, "\u2581who": 46, "\u2581\u06a9\u0631": 47, "\u2581\u06a9\u06cc\u0627": 48, "\u2581\u0627\u0644\u0644\u06c1": 49, "\u2581\u0646\u06c1": 50, "\u2581be": 51, ":": 52, "\u2581it": 53, "\u2581\u06c1\u0648": 54, "\u2581have": 55, "\u2581are": 56, "\u2581And": 57, "\u0650": 58, "\u2581their": 59, ";": 60, "\u2581He": 61, "\u2581\u0628\u06be\u06cc": 62, "\u2581We": 63, "\u0648\u06ba": 64, "\u2581with": 65, "s": 66, "!": 67, "\u2581from": 68, "\u2581\u06af\u06d2": 69, "\u2581\u0627\u067e\u0646\u06d2": 70, "\u2581God": 71, "\u2581\u201c": 72, "\u2581": 73, "\u2581\u0627\u06cc\u06a9": 74, "?": 75, "\u2581your": 76, "\u2581\u062e\u062f\u0627": 77, "\u2581those": 78, "\u2581\u06c1\u06cc": 79, "\u2581\u067e\u06be\u0631": 80, "\u2581Lord": 81, "\u2581\"": 82, "\u2581\u06a9\u0631\u062a\u06d2": 83, "\u2581\u201d": 84, "\u2581\u06af\u0627": 85, "\u2581\u062c\u0628": 86, "\u2581he": 87, "\u2581\u0622\u067e": 88, "\u2581\u0644\u0626\u06d2": 89, "\u2581do": 90, "\u0633": 91, "\u2581\u06a9\u0631\u0646\u06d2": 92, "\u2581\u062c\u0633": 93, "\u2581\u06a9\u0648\u0626\u06cc": 94, "\u2581on": 95, "\u2581\u0644\u0648\u06af": 96, "\u2581I": 97, "\u2581what": 98, "\u2581him": 99, "\u2581his": 100, "\u2581\u0648\u0627\u0644\u0627": 101, "\u2581\u0627\u06af\u0631": 102, "\u2581as": 103, "\u2581\u0644\u0648\u06af\u0648\u06ba": 104, "\u2581[": 105, "\u06d2": 106, "\u2581has": 107, "\u2581said": 108, "\u2581\u06a9\u0686\u06be": 109, "\u2581shall": 110, "\u2581when": 111, "\u2581\u0637\u0631\u0641": 112, "\u2581we": 113, "\u2581:": 114, "\u2581\u062a\u06be\u06d2": 115, "\u2581\u062a\u0645\u06c1\u0627\u0631\u06d2": 116, "\u0646": 117, "\u2581but": 118, "\u2581\u06c1\u0648\u06ba": 119, "\u2581all": 120, "\u0670": 121, "\u2581-": 122, "\u2581\u062a\u06be\u0627": 123, "-": 124, "\u2581people": 125, "\u2581\u0633\u0628": 126, "\u2581\u0627\u06cc\u0645\u0627\u0646": 127, "'": 128, "\u2581\u0627\u0646\u06c1\u06cc\u06ba": 129, "\u2581which": 130, "\u2581was": 131, "\u2581\u0627\u067e\u0646\u06cc": 132, "\u2581\u062f\u06cc\u0627": 133, "\u2581\u0644\u06cc\u06d2": 134, "\u2581\u060c": 135, "\u2581by": 136, "\u2581or": 137, "\u2581\u0648": 138, "\u2581\u06a9\u06c1\u0627": 139, "\u2581this": 140, "\u2581if": 141, "\u2581were": 142, "\u2581\u0631\u0628": 143, "\u2581\u0648\u0627\u0644\u06d2": 144, "\u2581\u062a\u0645\u06c1\u06cc\u06ba": 145, "\u2581\u062f\u06d2": 146, "\u2581\u06a9\u0631\u0648": 147, "\u2581then": 148, "\u2581so": 149, "\u200c": 150, "\u06cc": 151, "\u2581us": 152, "\u2581\u0627\u0633\u06d2": 153, "\u2581\u06cc\u0627": 154, "\u2581one": 155, "\u2581The": 156, "\u2581\u0633\u0627\u062a\u06be": 157, "\u2019": 158, "\u2581\u0628\u0627\u062a": 159, "\u2581\u0632\u0645\u06cc\u0646": 160, "\u2581His": 161, "\u2581no": 162, "\u2581\u067e\u0627\u0633": 163, "\u2581\u0628\u06d2": 164, "\u2581\u0631\u06c1\u06d2": 165, "\u2581They": 166, "\u2581\u0637\u0631\u062d": 167, "\u2581say": 168, "\u2581\u062f\u0646": 169, "\u2581had": 170, "\u2581\u06a9\u0631\u06cc\u06ba": 171, "\u2581\u2014": 172, "\u2581\u062c\u0627\u0626\u06d2": 173, "\u2581\u062c\u0646": 174, "]": 175, "\u2581\u0627\u06d2": 176, "\u2581\u06a9\u0633\u06cc": 177, "\u2581\u06c1\u06d2\u06d4": 178, "\u2581me": 179, "\u2581there": 180, "\u2581may": 181, "\u2581earth": 182, "\u2581\u0628\u06c1\u062a": 183, "\u2581\u06c1\u0631": 184, "\u2581an": 185, "\u2581would": 186, "\u2581\u0639\u0630\u0627\u0628": 187, "\u2581\u061f": 188, "\u061f": 189, "\u2581\u0628\u06cc\u0634\u06a9": 190, ".\"": 191, "\u2581Him": 192, "\u2581\u0648\u0627\u0644\u0648\u06ba": 193, "\u2581\u06a9\u0631\u062a\u0627": 194, "\u2581\u062a\u06a9": 195, "\u2581my": 196, "\u2581\u06af\u06cc\u0627": 197, "\u2581\u06c1\u0648\u0626\u06d2": 198, "\u2581our": 199, "\u2581ye": 200, "\u2581\u0644\u06d2": 201, "\u2581\u0627\u0644\u0644\u0647": 202, "\u2581been": 203, "\u2581believe": 204, "\u2581upon": 205, "\u2581\u06c1\u0645\u0627\u0631\u06d2": 206, "\u2581\u062f\u0648": 207, "\u2581But": 208, "\u2581\u0627\u0633\u06cc": 209, "\u2581\u067e\u06c1\u0644\u06d2": 210, "\u2581)": 211, "\u2581'": 212, "\u2581good": 213, "\u2581\u06a9\u0627\u0645": 214, "\u2581So": 215, "\u2581\u067e\u0631\u0648\u0631\u062f\u06af\u0627\u0631": 216, "\u2581before": 217, "\u2581\u06a9\u0631\u06d2": 218, "\u2581\u0648\u0642\u062a": 219, "\u2581Jehovah": 220, "\u2581\u062f\u06cc": 221, "\u2581\u0622\u0633\u0645\u0627\u0646": 222, "\u2581\u0631\u0633\u0648\u0644": 223, "\u2581can": 224, "\u2581\u0645": 225, "\u064e": 226, "\u2581made": 227, "\u2581\u06c1\u0648\u0627": 228, "\u2581\u0628\u0639\u062f": 229, "\u2581\u0645\u06cc\u0631\u06d2": 230, "\u2581\u06cc\u06c1\u0648\u0648\u0627\u06c1": 231, "\u2581\u0627\u0646\u06c1\u0648\u06ba": 232, "\u0651": 233, "\u2581did": 234, "\u2581come": 235, "\u2581only": 236, "\u2581know": 237, "\u06cc\u06ba": 238, "\u2581among": 239, "\u2581\u06c1\u0645\u06cc\u06ba": 240, "\u0646\u06d2": 241, "\u2581\u0645\u06af\u0631": 242, "\u2581at": 243, "\u2581\u0634\u06a9": 244, "\u2581whom": 245, "ing": 246, "\u2581\u062c\u0627\u0626\u06cc\u06ba": 247, "\u2581sent": 248, "\u2581\u0648\u0647": 249, "\u2581any": 250, "\u2581\u0686\u06cc\u0632": 251, "),": 252, "\u2581\u067e\u06cc\u062f\u0627": 253, "\u2581down": 254, "\u2581\u062a\u0627\u06a9\u06c1": 255, "\u2581\u062d\u06a9\u0645": 256, "\u2581\u0645\u062c\u06be\u06d2": 257, "\u2581Day": 258, "\u2581\u06a9\u062a\u0627\u0628": 259, "\u2581\u0648\u06c1\u06cc": 260, "\u2581day": 261, "\u2581\u0634\u062e\u0635": 262, "\u2581indeed": 263, "\u2581\u062a\u06be\u06cc": 264, "\u2581\u067e\u0633": 265, "\u2581out": 266, "\u2581\u0642\u0648\u0645": 267, "\u2581Our": 268, "\u2581Then": 269, "\u0627": 270, "\u2581about": 271, "\u2581unto": 272, "\u2581life": 273, "\u2581Say": 274, "\u2581nor": 275, "\u06cc\u0627": 276, "\u2581You": 277, "\u2581\u0628\u0691\u0627": 278, "\u2581\u062d\u0642": 279, "\u2581\u2018": 280, "\u2581than": 281, "\u2581\u06a9": 282, "\u2581should": 283, "\u2581\u062c\u0627\u0646": 284, ").": 285, "\u2581make": 286, "\u2581surely": 287, "\u2581\u06c1\u0645\u0627\u0631\u06cc": 288, "\u2581\u06af\u06cc": 289, "\u2581some": 290, "\u2581\u062f\u06cc\u06ba": 291, "\u2581\u062a\u0645\u06c1\u0627\u0631\u06cc": 292, "\u2581\u06a9\u0631\u0646\u0627": 293, "\u064b": 294, "\u2581\u0644\u06cc\u06a9\u0646": 295, "\u2581\u06af\u0626\u06d2": 296, "\u2581\u06a9\u06c1\u06c1": 297, "\u2581It": 298, "\u2581other": 299, "\u2581\u06c1\u0648\u06af\u0627": 300, "\u2581away": 301, "\u06c1": 302, "\u2581things": 303, "\u2581\u0644\u06cc\u0627": 304, "\u2581truth": 305, "\u2581All": 306, "\u2581see": 307, "\u2581over": 308, "\u2581against": 309, "\u2581\u0633\u06a9\u062a\u06d2": 310, "\u2581give": 311, "\u2581\u0633\u0648\u0627": 312, "\u2581O": 313, "\u2581fear": 314, "\u2581\u062f": 315, "\u2581\u06c1\u06cc\u06ba\u06d4": 316, "\u2581after": 317, "\u2581\u0627\u06cc\u0633\u06d2": 318, "\u2581into": 319, "\u2581When": 320, "\u2581way": 321, "\u2581heavens": 322, "\u2581\u0632\u06cc\u0627\u062f\u06c1": 323, "\u2581\u0627\u0628": 324, "\u2581\u0633\u0648": 325, "\u2581If": 326, "\u2581What": 327, "\u2581\u06a9\u06c1\u062a\u06d2": 328, "O": 329, "\u2581\u06c1\u062f\u0627\u06cc\u062a": 330, "\u2581men": 331, "\u2581except": 332, "\u2581\u062a\u0639\u0627\u0644\u06cc": 333, "\u2581up": 334, "\u2581\u0628\u0646\u0627": 335, "\u2581\u0645\u06cc\u0631\u06cc": 336, "\u2581its": 337, "\u2581thou": 338, ".\u201d": 339, "\u2581\u0622\u0626\u06d2": 340, "\u2581like": 341, "\u2581evil": 342, "\u2581does": 343, "\u2581\u0631\u06c1\u0627": 344, "\u2581\u062f\u06cc\u062a\u0627": 345, "\u0627\u0648\u0631": 346, "\u2581\u0631\u0627\u06c1": 347, "\u2581\u062a\u0645\u06c1\u0627\u0631\u0627": 348, "\u2581\u0645\u062f\u062f": 349, "\u2581\u06cc\u06c1\u06cc": 350, "\u2581In": 351, "\u2581\u06af\u06be\u0631": 352, "\u2581\u0628\u0691\u06cc": 353, "the": 354, "\u2581punishment": 355, "\u2581\u0627\u06cc\u0633\u0627": 356, "\u2581how": 357, "\u2581\u0635\u0631\u0641": 358, "\u2581time": 359, "\u2581\u062c\u0633\u06d2": 360, "\u2581Jesus": 361, "\u2581\u06c1\u0648\u062a\u0627": 362, "\u2581\u062f\u0644": 363, "\u2581\u0644\u0627\u0626\u06d2": 364, "\u2581Book": 365, "\u2581given": 366, "\u2581\u06af\u0626\u06cc": 367, "\u2581\u06a9\u06cc\u0644\u0626\u06d2": 368, "\u2581\u06a9\u06cc\u0648\u06ba": 369, "\u2581\u0628\u0644\u06a9\u06c1": 370, "\u2581\u06cc\u0642\u06cc\u0646\u0627": 371, "\u2581\u06a9\u06c1\u06cc\u06ba": 372, "\u2581man": 373, "\u2581created": 374, "\u2581\u0686\u0627\u06c1\u062a\u0627": 375, "\u2581Indeed": 376, "\u2581\u0639\u0644\u0645": 377, "\u2581\u0646\u0627\u0632\u0644": 378, "\u2581\u06c1\u0648\u0626\u06cc": 379, "\u2581\u0632\u0646\u062f\u06af\u06cc": 380, "\u2581take": 381, "\u2581\u062f\u0648\u0646\u0648\u06ba": 382, "\u2581more": 383, "\u2581\u062e\u0648\u062f": 384, "\u2581\u2019": 385, "\u2581\u062f\u0648\u0633\u0631\u06d2": 386, "\u2581\u062c\u0627\u062a\u0627": 387, "\u2581most": 388, "\u2581\u062c\u0627\u0646\u062a\u0627": 389, "\u2581\u06cc\u0627\u062f": 390, "\u2581believers": 391, "\u2581\u062f\u06cc\u062a\u06d2": 392, "\u2581\u062c\u0627\u0624": 393, "\u2581signs": 394, "\u2581\u0637\u0648\u0631": 395, "\u2581world": 396, "\u2581\u0628\u0627\u0631\u06d2": 397, "\u2581\u06cc\u0633\u0648\u0639": 398, "\u2581themselves": 399, "\u2581\u0631\u06a9\u06be\u062a\u06d2": 400, "\u2581\u0628\u06cc\u0627\u0646": 401, "\u2581her": 402, "\u2581because": 403, "\u2581\u0648\u0627\u0644\u06cc": 404, "\u2581Those": 405, "\u2581Do": 406, "\u2581Who": 407, "\u2581two": 408, "\u0627\u0633": 409, "\u2581\u0627\u0639\u0645\u0627\u0644": 410, "\u2581turn": 411, "\u06d4": 412, "\u2581\u06a9\u0633": 413, "\u2581\u0627\u067e\u0646\u0627": 414, "\u2581thee": 415, "\u2581This": 416, "\u2581\u062c\u0627": 417, "\u2581right": 418, "\"": 419, "\u2581That": 420, "in": 421, "\u2581My": 422, "\u2581\u062e\u0648\u0628": 423, "\u2581How": 424, "\u2581\u06c1\u0648\u0646\u06d2": 425, "\u2581knowledge": 426, "\u2581\u0628": 427, "\u2581\u062a\u0645\u0627\u0645": 428, "\u2581deeds": 429, "\u2581\u062d\u0627\u0635\u0644": 430, "\u2581\u06c1\u0645\u06cc\u0634\u06c1": 431, "\u2581\u0627\u0627\u0644\u0644\u0647": 432, "\u2581such": 433, "\u2581hearts": 434, "\u2581\u0639\u0645\u0644": 435, "\u2581\u062f\u0646\u06cc\u0627": 436, "\u2581faith": 437, "\u2581between": 438, "\u2581came": 439, "\u2581\u2013": 440, "ed": 441, "\u2581Messenger": 442, "\u2581let": 443, "\u2581\u0645\u06cc\u0631\u0627": 444, "\u2581even": 445, "\u2581\u06cc\u06c1\u0627\u06ba": 446, "\u2581help": 447, "\u2581bring": 448, "\u2581\u0646\u06cc\u06a9": 449, "\u2581worship": 450, "\u2581\u0642\u06cc\u0627\u0645\u062a": 451, "\u2581back": 452, "\u2581Bible": 453, "\u2581\u0645\u0648\u0633\u06cc": 454, "\u2581every": 455, "\u2581\u062f\u06cc\u0646\u06d2": 456, "\u2581others": 457, "\u2581many": 458, "\u2581\u0636\u0631\u0648\u0631": 459, "\u2581these": 460, "\u2581.": 461, "\u2581am": 462, "\u2581\u06f1": 463, "\u2581\u0686\u06be\u0648\u0691": 464, "\u2581\u0627\u06cc\u0633\u06cc": 465, "\u2581\u0639\u0637\u0627": 466, "\u2581\u06a9\u0648\u0646": 467, "\u2581\u0628\u06c1\u062a\u0631": 468, "\u2581\u0641\u0631\u0645\u0627\u06cc\u0627": 469, "\u2581while": 470, "\u2581\u0628\u0627\u067e": 471, "\u2581\u0638\u0627\u06c1\u0631": 472, "\u2581\u0646\u0635\u06cc\u062d\u062a": 473, "\u2581another": 474, "\u2581\u062f\u06cc\u06a9\u06be": 475, "\u0628\u06be\u06cc": 476, "\u0627\u06d2": 477, "\u2581\u0628\u0639\u0636": 478, "\u2581\u0631\u06c1\u06cc\u06ba": 479, "\u2581could": 480, "\u2581\u0633\u062e\u062a": 481, "\u2581never": 482, "\u2581clear": 483, "\u2581own": 484, "of": 485, "\u2581\u0622\u062e\u0631\u062a": 486, "\u2581mercy": 487, "\u2581\u067e\u0627\u06a9": 488, "\u2581\u06a9\u0627\u0641\u0631\u0648\u06ba": 489, "\u2581ask": 490, "\u2581\u0644\u0648": 491, "\u2581\u0644\u06af\u06d2": 492, "I": 493, "\u2581\u0633\u06a9\u062a\u0627": 494, "\u2581certainly": 495, "\u2581\u0641\u0631\u0645\u0627": 496, "\u2581well": 497, "\u2581knows": 498, "\u2581hath": 499, "\u2581\u06a9\u0641\u0631": 500, "\u2581\u0646\u0627\u0645": 501, "\u2581\u062c\u0627\u062a\u06d2": 502, "\u2581reward": 503, "\u2581\u0648\u0639\u062f\u06c1": 504, "\u2581\u062c\u0627\u0646\u062a\u06d2": 505, "\u2581\u0645\u0627\u0644": 506, "\u2581Moses": 507, "\u2581\u0633\u0627\u0645\u0646\u06d2": 508, "\u2581\u0686\u0627\u06c1\u06d2": 509, "\u2581follow": 510, "\u2581forth": 511, "\u2581\u0627\u062e\u062a\u06cc\u0627\u0631": 512, "\u2581\u0642\u0633\u0645": 513, "\u2581For": 514, "\u0633\u06d2": 515, "to": 516, "\u2581also": 517, "We": 518, "\u2581\u0631\u062d\u0645\u062a": 519, "\u2581\u0627\u0644\u0633\u0644\u0627\u0645": 520, "\u2581\u06c1\u0648\u062a\u06d2": 521, "\u2581\u06a9\u0626\u06d2": 522, "\u2581\u0634\u06cc\u0637\u0627\u0646": 523, "\u2581\u0639\u0628\u0627\u062f\u062a": 524, "\u2581\u0638\u0644\u0645": 525, "\u2581\u0641\u06cc\u0635\u0644\u06c1": 526, "\u2581land": 527, "\u2581verily": 528, "\u2581\u067e\u0627\u0646\u06cc": 529, "e": 530, "\u2581\u0648\u062c\u06c1": 531, "\u2581find": 532, "\u2581\u062c\u06af\u06c1": 533, "\u2581where": 534, "\u2581A": 535, "\u2581\u0645\u0633\u06cc\u062d": 536, "\u2581\u062f\u0631\u0645\u06cc\u0627\u0646": 537, "\u06cc\u06c1": 538, "\u2581\u0628\u0646\u0627\u06cc\u0627": 539, "\u2581\u06a9\u0627\u0641\u0631": 540, "\u0627\u0646": 541, "\u06cc\u0639\u0646\u06cc": 542, "\u2581\u06c1\u0627\u06ba": 543, "\u2581\u062c\u0646\u06c1\u0648\u06ba": 544, "\u2581she": 545, "\u2581true": 546, "\u2581\u0645\u0639\u0644\u0648\u0645": 547, "\u2581revealed": 548, "\u2581\u067e\u06cc\u0686\u06be\u06d2": 549, "\u2581women": 550, "\u2581therein": 551, "(": 552, "\u2581better": 553, "\u2581\u0646\u0634\u0627\u0646\u06cc": 554, "\u2581\u062f\u0627\u062e\u0644": 555, "\u2581go": 556, "\u2581\u062d\u0627\u0644\u0627\u0646\u06a9\u06c1": 557, "\u2581\u0628\u0691\u06d2": 558, "\u2581\u0631\u06a9\u06be\u0627": 559, "\u2581\u0622": 560, "\u2581\u0627\u0646\u0633\u0627\u0646": 561, "\u2581\u06a9\u06cc\u0633\u06d2": 562, "\u2581\u0631\u06c1\u0646\u06d2": 563, "\u2581Surely": 564, "\u2581might": 565, "\u2581\u062c\u0627\u0646\u06d2": 566, "?\"": 567, "\u2581great": 568, "\u2581\u0628\u0627\u0626\u0628\u0644": 569, "\u2581Verily": 570, "\u2581gave": 571, "\u2581brought": 572, "\u2581\u0627\u06c1\u0644": 573, "\u2581\u0631\u0627\u062a": 574, "\u2581until": 575, "\u062a": 576, "\u2581used": 577, "\u2581each": 578, "\u2581As": 579, "\u2581\u0622\u06af": 580, "\u2581\u0642\u0627\u0626\u0645": 581, "ly": 582, "\u06a9\u06d2": 583, "\u2581love": 584, "\u2581night": 585, "\u2581\u0686\u0627\u06c1\u062a\u06d2": 586, "\u2581\u0622\u06cc\u0627": 587, "\u2581\u06c1\u0627\u062a\u06be": 588, "\u2581\u062d\u06a9\u0645\u062a": 589, "\u2581\u06a9\u0628\u06be\u06cc": 590, "\u2581Most": 591, "\u2581become": 592, "\u2581\u062f\u06cc\u06a9\u06be\u0627": 593, "\u2581being": 594, "\u2581\u061b": 595, "\u2581guidance": 596, "\u2581death": 597, "\u2581thy": 598, "\u2581]": 599, "\u2581\u062f\u06cc\u062c\u0626\u06d2": 600, "\u2581place": 601, "\u2581call": 602, "\u2581\u06af\u0648\u0627\u06c1": 603, "\u2581\u06c1\u0648\u062a\u06cc": 604, "\u2581wrong": 605, "\u2581\u062c\u0627\u062a\u06cc": 606, "\u2581\u062e\u06cc\u0627\u0644": 607, "\u2581cause": 608, "\u2581\u06a9\u06c1\u0646\u06d2": 609, "\u2581\u0642\u0631\u0622\u0646": 610, "\u2581\u0628\u0627\u062a\u0648\u06ba": 611, "\u2581\u062c\u0646\u06c1\u06cc\u06ba": 612, "\u2581ones": 613, "\u2581\u062f\u0644\u0648\u06ba": 614, "\u2581\u067e\u0648\u0631\u0627": 615, "\u2581\u0642\u0628\u0648\u0644": 616, "\u2581\u0644\u06cc\u06ba": 617, "\u2581There": 618, "\u2581\u0631\u06c1\u0648": 619, "\u2581\u0628\u06be\u0627\u0626\u06cc": 620, "\u2581\u0622\u062c": 621, "\u2581\u06c1\u0631\u06af\u0632": 622, "\u2581\u062d\u0627\u0644": 623, "\u2581best": 624, "\u2581angels": 625, "\u2581\u0628\u062f\u0644\u06c1": 626, "\u2581return": 627, "\u2581\u0628\u0646\u062f\u0648\u06ba": 628, "\u2581\u0631": 629, "\u2581\u0646\u0634\u0627\u0646\u06cc\u0627\u06ba": 630, "\u2581\u0627\u0648\u0644\u0627\u062f": 631, "\u2581\u06a9\u06cc\u06d2": 632, "\u2581\u0645\u0642\u0631\u0631": 633, "\u2581\u062a\u06cc\u0631\u06d2": 634, "\u2581\u0628\u06be\u06cc\u062c\u0627": 635, "\u2581\u0645\u062b\u0627\u0644": 636, "\u2581\u0646\u0645\u0627\u0632": 637, "\u0646\u06c1\u06cc\u06ba": 638, "\u2581\u0648\u06c1\u0627\u06ba": 639, "\u2581send": 640, "\u2581Us": 641, "\u2581\u06af\u06d2\u06d4": 642, "\u2581\u0686\u0627\u06c1\u0626\u06d2": 643, "\u2581children": 644, "\u2581\u062f\u0648\u0632\u062e": 645, "\u2581water": 646, "\u2581\u0638\u0627\u0644\u0645": 647, "\u2581\u06f2": 648, "\u2581\u067e\u06cc\u063a\u0645\u0628\u0631": 649, "\u2581\u06c1\u0645\u0627\u0631\u0627": 650, "\u2581Fire": 651, "\u2581\u0633\u0632\u0627": 652, "\u2581\u0627\u0646\u06a9\u0627\u0631": 653, "\u2581mankind": 654, "\u2581set": 655, "\u2581\u0628\u0646": 656, "\u2581righteous": 657, "\u2581power": 658, "\u2581\u0634\u0631\u06cc\u06a9": 659, "\u2581ever": 660, "\u2581\u0645\u0648\u062a": 661, "\u2581disbelieve": 662, "\u0648": 663, ".'": 664, "\u2581\u0645\u062d\u0628\u062a": 665, "\u2581\u0635\u0628\u0631": 666, "\u2581\u0631\u0648\u0632": 667, "\u2581\u062c\u0648\u0627\u0628": 668, "\u2581To": 669, "\u2581\u062c\u06cc\u0633\u06d2": 670, "\u2581\u06c1\u0648\u06af\u06cc": 671, "\u2581Merciful": 672, "\u2581\u062f\u06cc\u0646": 673, "\u2581nothing": 674, "\u2581Prophet": 675, "\u2581\u063a\u0627\u0644\u0628": 676, "\u2581\u0642\u0631\u06cc\u0628": 677, "t": 678, "\u2581\u0633\u06cc": 679, "\u2581\u0645\u062c\u06be": 680, "\u2581\u0645\u0633\u06cc\u062d\u06cc": 681, "\u2581torment": 682, "\u2581\u067e\u06cc\u0634": 683, "\u2581\u0639\u0648\u0631\u062a\u0648\u06ba": 684, "\u2581\u06a9\u0631\u062f\u06cc\u0627": 685, "\u2581astray": 686, "\u2581work": 687, "\u2581whatever": 688, "\u2581though": 689, "\u2581\u0631\u062d\u0645": 690, "\u2581\u0641\u0636\u0644": 691, "\u2581\u06a9\u0631\u062a\u06cc": 692, "\u2581\u0688\u0627\u0644": 693, "\u2581\u062e\u0628\u0631": 694, "):": 695, "\u0639\u0644\u06cc\u06c1": 696, "\u2581whose": 697, "\u2581put": 698, "\u0634\u06a9": 699, "\u2581\u0627\u06a9\u062b\u0631": 700, "\u2581deny": 701, "\u2581first": 702, "\u2581Muhammad": 703, "\u2581leave": 704, "\u2581\u0645\u0646\u06c1": 705, "\u0648\u0631": 706, "\u2581disbelievers": 707, "\u2581\u0631\u06a9\u06be\u062a\u0627": 708, "\u0627\u06ba": 709, "\u2581\u062e\u0648\u0641": 710, "\u2581\u0622\u0646\u06d2": 711, "\u2581\u0627\u0646\u062c\u0627\u0645": 712, "\u25811": 713, "eth": 714, "\u2581\u0641\u0631\u0639\u0648\u0646": 715, "\u2581\u0632\u0646\u062f\u06c1": 716, "\u2581--": 717, "\u2581without": 718, "\u2581\u0648\u0627\u0644\u0648": 719, "],": 720, "d": 721, "\u2581\u062e\u0648\u0634": 722, "\u2581\u06af\u0646\u0627\u06c1": 723, "\u2581witness": 724, "\u2581unbelievers": 725, "\u2581\u0628\u0627\u062a\u06cc\u06ba": 726, "\u2581\u063a\u0648\u0631": 727, "\u2581\u06a9\u0644\u0627\u0645": 728, "\u2581son": 729, "\u2581whoever": 730, "\u2581\u0628\u062e\u0634\u0646": 731, "\u2581\u067e\u0648\u0631\u06cc": 732, "\u2581prayer": 733, "\u2581\u062d\u0635\u06c1": 734, "\u2581Your": 735, "\u2581\u0645\u0639\u0628\u0648\u062f": 736, "\u2581Lo": 737, "\u2581none": 738, "\u2581just": 739, "\u2581\u0639\u0644\u0627\u0648\u06c1": 740, "\u2581\u0622\u06cc\u062a\u0648\u06ba": 741, "\u2581\u0645\u06c1\u0631\u0628\u0627\u0646": 742, "\u2581\u0642\u062a\u0644": 743, "\u2581\u0631\u06c1\u06cc": 744, "\u2581soul": 745, "\u2581believed": 746, "\u2581turned": 747, "\u2581\u0644\u06af\u0627": 748, "\u2581\u062f\u0648\u0631": 749, "\u2581Why": 750, "\u2581\u0633\u0627\u0644": 751, "\u0647": 752, "\u2581\u0628\u0631\u0627\u0628\u0631": 753, "\u2581neither": 754, "\u2581through": 755, "\u2581One": 756, "\u2581promise": 757, "\u2581religion": 758, "\u2581\u06a9\u06cc\u0648\u0646\u06a9\u06c1": 759, "\u062a\u0627": 760, "\u2581Hereafter": 761, "\u2581\u06af\u0627\u06d4": 762, "\u2581guided": 763, "\u2581yourselves": 764, "\u2581\u06f3": 765, "\u2581seek": 766, "\u2581\u06cc\u0642\u06cc\u0646": 767, "\u0635": 768, "\u06a9\u06cc": 769, "\u2581\u0622\u06af\u06d2": 770, "\u2581\u0628\u0633": 771, "\u2581keep": 772, "\u2581hands": 773, "\u2581servants": 774, "\u2581On": 775, "\u2581Or": 776, "\u2581Satan": 777, "a": 778, "\u2581now": 779, "\u2581\u0646\u0642\u0635\u0627\u0646": 780, "\u2581\u06af\u0631\u0648\u06c1": 781, "\u2581\u0645\u0637\u0627\u0628\u0642": 782, "\u2581\u0688\u0631": 783, "\u2581order": 784, "\u2581\u062f\u06cc\u06a9\u06be\u062a\u06d2": 785, "\u2581\u0631\u06a9\u06be\u0646\u06d2": 786, "\u2581\u062a\u0648\u0628\u06c1": 787, "\u2581years": 788, "\u2581\u062c\u0645\u0639": 789, "\u2581\u0627\u0648\u067e\u0631": 790, "\u2581yet": 791, "\u2581\u062a\u062c\u06be\u06d2": 792, "\u2581\u0627\u0686\u06be\u0627": 793, "\u2581show": 794, "\u2581Me": 795, "\u2581\u0622\u062f\u0645\u06cc": 796, "\u2581both": 797, "i": 798, "\u2581\u06c1\u0644\u0627\u06a9": 799, "\u2581\u0686\u06cc\u0632\u0648\u06ba": 800, "\u2581\u06a9\u0645": 801, "\u2581family": 802, "\u2581think": 803, "\u2581\u062e\u0631\u0686": 804, "\u2581fire": 805, "\u2581Is": 806, "th": 807, ".\u2019": 808, "\u2581\u0639\u06c1\u062f": 809, "\u2581\u0622\u067e\u0633": 810, "\u2581\u0630\u06a9\u0631": 811, "\u2581\u062f\u0648\u0633\u062a": 812, "\u2581together": 813, "\u2581remember": 814, "\u2581heaven": 815, "\u2581\u0622\u0626\u06cc\u06ba": 816, "\u2581\u0686\u06a9\u06d2": 817, "\u2581Thus": 818, "\u062a\u06d2": 819, "\u2581Have": 820, "\u2581\u0634\u0627\u06cc\u062f": 821, "\u2581\u062c\u06c1\u0627\u06ba": 822, "\u2581much": 823, "\u2581save": 824, "\u0645": 825, "\u2581\u0631\u0627\u0633\u062a\u06c1": 826, "\u2581says": 827, "\u2581path": 828, "\u2581\u062c\u06c1\u0646\u0645": 829, "\u2581\u062a": 830, "\u2581\u067e\u06cc\u0631\u0648\u06cc": 831, "\u2581\u067e\u0691\u06d2": 832, "\u2581\u06a9\u06c1\u0648": 833, "\u2581part": 834, "\u2581command": 835, "\u0639\u0646\u0642\u0631\u06cc\u0628": 836, "\u2581found": 837, "\u2581_": 838, "\u2581sign": 839, "\u2581\u0628\u06be\u0644\u0627": 840, "st": 841, "\u2581\u0639\u0644\u06cc\u06c1": 842, "\u2581\u06f4": 843, "\u2581\u06af\u0645\u0631\u0627\u06c1": 844, "\u2581\u0628\u0631\u0627\u0626\u06cc": 845, "\u2581peace": 846, "\u2581\u0633\u0645\u062c\u06be": 847, "\u2581No": 848, "\u2581\u062d\u062f": 849, "\u2581guide": 850, "\u0631": 851, "\u2581\u0645\u0639\u0627\u0641": 852, "\u2581done": 853, "\u2581Resurrection": 854, "\u2581\u0688\u0631\u062a\u06d2": 855, "\u2581Abraham": 856, "\u2581Hell": 857, "\u2581saying": 858, "\u2581sin": 859, "\u0633\u06cc": 860, "\u2581heart": 861, "\u2581\u0631\u06c1": 862, "\u2581full": 863, "\u2581\u0648\u0627\u0636\u062d": 864, "\u2014": 865, "\u2581appointed": 866, "\u2581\u0628\u0627\u0644\u06a9\u0644": 867, "\u2581\u0646\u0628\u06cc": 868, "\u2581\u067e\u0633\u0646\u062f": 869, "Allah": 870, "\u2581means": 871, "This": 872, "\u2581comes": 873, "\u2581\u0648\u062d\u06cc": 874, "\u2581\u062f\u06cc\u0626\u06d2": 875, "\u2581\u0631\u06c1\u062a\u06d2": 876, "\u2581\u0631\u06a9\u06be\u0648": 877, "\u2581eyes": 878, "\u2581cannot": 879, "\u2581everything": 880, "\u2581behind": 881, "\u2581must": 882, "\u2581brother": 883, "\u2581words": 884, "\u2581himself": 885, "\u2581light": 886, "\u2581\u0638\u0627\u0644\u0645\u0648\u06ba": 887, "\u2581father": 888, "\u2581forgiveness": 889, "\u2581\u06f5": 890, "\u2581\u0633\u0686\u06d2": 891, "\u2581\u0627\u0628\u0631\u0627\u06c1\u06cc\u0645": 892, "\u062a\u06cc\u0631\u06cc": 893, "\u2581\u062f\u06cc\u06a9\u06be\u0648": 894, "\u0650\u200c": 895, "\u0646\u06c1\u0648\u06ba": 896, "\u2581\u0646\u06cc\u0686\u06d2": 897, "\u2581very": 898, "\u2581\u0633\u0631": 899, "\u2581end": 900, "\u2581\u0641\u0627\u0626\u062f\u06c1": 901, "\u2581\u0646\u06a9\u0627\u0644": 902, "\u2581dead": 903, "\u2581Christians": 904, "\u2581\u0646\u0639\u0645\u062a": 905, "\u2581called": 906, "\u2581Israel": 907, "\u2581towards": 908, "\u2581\u062a\u06be\u06cc\u06ba": 909, "\u2581name": 910, "\u2581understand": 911, "\u2581revelations": 912, "The": 913, "\u2581Pharaoh": 914, "\u2581speak": 915, "\u2581\u062e\u062f\u0645\u062a": 916, "\u2581besides": 917, "\u2581left": 918, "\u2581\u062e\u0628\u0631\u062f\u0627\u0631": 919, "\u2581hear": 920, "\u2581\u06c1\u0648\u06d4": 921, "...": 922, "\u2581\u0634\u06a9\u0631": 923, "\u2581\u0644\u0627\u0646\u06d2": 924, "\u2581\u0645\u0627\u0644\u06a9": 925, "\u2581enter": 926, "\u2581example": 927, "\u2581above": 928, "\u0646\u06cc\u0627": 929, "\u2581news": 930, "\u2581\u062d\u0631\u0627\u0645": 931, "\u2581hand": 932, "\u2581wealth": 933, "\u2581word": 934, "\u2581\u062a\u06a9\u0644\u06cc\u0641": 935, "\u2581\u0628\u06be\u0644\u0627\u0626\u06cc": 936, "\u2581told": 937, "\u2581therefore": 938, "\u2581obey": 939, "\u2581\u0628\u0631\u0627": 940, "\u2581\u0627\u062c\u0631": 941, "\u2581able": 942, "\u2581\u0628\u0646\u06cc": 943, "\u2581need": 944, "\u2581forgive": 945, "an": 946, "\u2581\u0628\u0627\u0631": 947, "\u2581\u0646\u062c\u0627\u062a": 948, "\u2581eat": 949, "\u2581\u0635\u0627\u0641": 950, "\u06c1\u06cc": 951, "\u2581\u067e\u06be\u06cc\u0631": 952, "\u2581near": 953, "\u2581\u0632\u0628\u0627\u0646": 954, "\u2581\u062b\u0627\u0628\u062a": 955, "\u2581\u062a\u06cc\u0627\u0631": 956, "\u2581\u06a9\u0627\u0645\u0648\u06ba": 957, "\u2581\u0622\u06cc\u062a\u06cc\u06ba": 958, "\u2581thing": 959, "\u2581\u0688\u0631\u0648": 960, "\u2581concerning": 961, "\u2581\u062e\u0644\u0627\u0641": 962, "\u2581\u062c\u0628\u06a9\u06c1": 963, "\u062a\u0648": 964, "\u2581\u06f6": 965, "\u2581\u06af\u0632\u0631": 966, "\u2581matter": 967, "\u2581anything": 968, "\u2581\u06a9\u0631\u0648\u06d4": 969, "\u2581\u0644\u06cc\u062a\u06d2": 970, "\u2581\u062c\u06be\u0679\u0644\u0627\u06cc\u0627": 971, "\u2581painful": 972, "\u2581These": 973, "\u2581\u0646\u06a9\u0644": 974, "\u2581\u06a9\u0648\u0634\u0634": 975, "\u2581doubt": 976, "\u2581\u062d\u0642\u06cc\u0642\u062a": 977, "\u2581sins": 978, "\u2581Messengers": 979, "\u2581!": 980, "\u2581By": 981, "!\"": 982, "\u2581\u067e\u06c1\u0646\u0686\u0627": 983, "\u2581\u06af\u0645\u0631\u0627\u06c1\u06cc": 984, "\u2581\u062f\u06cc\u06a9\u06be\u06cc\u06ba": 985, "\u2581\u0633": 986, "\u2581Quran": 987, "\u2581\u0645\u0644\u06a9": 988, "\u2581\u0631\u06a9\u06be": 989, "\u2581belongs": 990, "\u2581chastisement": 991, "\u2581\u0644\u0648\u06af\u0648": 992, "\u2581human": 993, "\u2581\u0631\u0633\u0648\u0644\u0648\u06ba": 994, "\u2581\u06a9\u0627\u0641\u06cc": 995, "\u2581\u062c\u06cc\u0633\u0627": 996, "\u2581\u0639\u0648\u0631\u062a": 997, "\u2581\u0633\u0646": 998, "\u2581\u0627\u0644": 999, "\u2581\u0627\u0686\u06be\u06cc": 1000, "\u2581wills": 1001, "\u2581\u0645\u062f\u062f\u06af\u0627\u0631": 1002, "\u2581\u06a9\u0646": 1003, "\u2581Paul": 1004, "\u2581\u0686\u06cc\u0632\u06cc\u06ba": 1005, "\u2581\u062a\u06be\u06d2\u06d4": 1006, "\u2581\u06a9\u0631\u06a9\u06d2": 1007, "\u2581tell": 1008, "\u2581Yet": 1009, "\u2581\u0645\u0631\u062f": 1010, "\u2581god": 1011, "\u2581\u0633\u0646\u0646\u06d2": 1012, "\u2581\u06ba": 1013, "\u2581\u0631\u0632\u0642": 1014, "\u2581\u062e\u0648\u0634\u06cc": 1015, "\u2581\u0648\u0633\u0644\u0645": 1016, "\u2581parents": 1017, "\u2581desire": 1018, "\u2581\u062e\u0627\u0635": 1019, "\u2581too": 1020, "\u2581\u0627\u0633\u0631\u0627\u0626\u06cc\u0644": 1021, "\u2581die": 1022, "\u2581off": 1023, "].": 1024, "\u2581\u0630\u0645\u06c1": 1025, "\u2581\u0645\u0627\u06ba": 1026, "\u0630\u0627": 1027, "\u2581\u0635\u0641\u062d\u06c1": 1028, "\u2581promised": 1029, "\u2581\u0634\u0627\u0645\u0644": 1030, "\u2581took": 1031, "\u2581bear": 1032, "\u2581\u0645\u0648\u0645\u0646": 1033, "\u2581unjust": 1034, "\u06a9\u06c1": 1035, "\u2581\u0628\u0691\u06be": 1036, "\u2581Thou": 1037, "\u2581\u067e": 1038, "\u2581became": 1039, "\u2581\u06af\u0648\u0627\u06c1\u06cc": 1040, "\u2581\u0644\u06c1": 1041, "\u2581\u0648\u0627\u067e\u0633": 1042, "\u2581\u06a9\u06be\u0648\u0644": 1043, "\u2581person": 1044, "\u2581\u062d\u0627\u0636\u0631": 1045, "\u2581\u0639\u0632\u062a": 1046, "\u2581destroyed": 1047, "\u2581\u0686\u0644\u06d2": 1048, "\u2581\u0644\u0627\u062a\u06d2": 1049, "\u2581Wise": 1050, "\u2581\u0641\u0631\u0634\u062a\u06d2": 1051, "\u2581\u0645\u0644": 1052, "\u2581\u062f\u0627\u0631": 1053, "\u2581\u0632\u0628\u0648\u0631": 1054, "\u0648\u06c1": 1055, "\u2581\u0634\u06c1\u0631": 1056, "My": 1057, "\u2581want": 1058, "\u2581\u0686\u06a9\u0627": 1059, "\u2581creation": 1060, "\u2581\u062c\u0645\u0627\u0639\u062a": 1061, "\u2581little": 1062, "\u2581\u0641\u0631\u0645\u0627\u062a\u0627": 1063, "\u2581\u0628\u0648\u062c\u06be": 1064, "\u2581spirit": 1065, "\u2581\u0646\u06cc\u06a9\u06cc": 1066, "\u2581nation": 1067, "\u2581\u062f\u0648\u0633\u0631\u0648\u06ba": 1068, "\u2581\u0641\u0631\u0645\u0627\u0626\u06d2": 1069, "\u2581raised": 1070, "\u2581apostle": 1071, "\u2581\u062d\u0627\u0644\u062a": 1072, "\u2581\u0642\u062f\u0631\u062a": 1073, "\u2581\u062d\u0633\u0627\u0628": 1074, "\u2581long": 1075, "\u2581\u06c1\u0648\u0646\u0627": 1076, "\u062f\u0631\u062f\u0646\u0627\u06a9": 1077, "\u2581\u0646\u0638\u0631": 1078, "\u2581wife": 1079, "\u2581taken": 1080, "\u2581\u0633\u0648\u0627\u0626\u06d2": 1081, "\u2581why": 1082, "\u2581\u06cc\u0648\u0633\u0641": 1083, "\u2581\u0642\u0631\u0627\u0631": 1084, "\u2581\u06a9\u0631\u062f\u06d2": 1085, "\u2581\u0628\u0646\u0627\u0626\u06d2": 1086, "\u2581\u0646\u0648\u062d": 1087, "\u2581SAW": 1088, "\u2581seen": 1089, "\u2581live": 1090, "\u2581\u0628\u063a\u06cc\u0631": 1091, "\u2581\u062c\u06be\u0648\u0679": 1092, "\u2581days": 1093, "\u2581\u06f1\u06f0": 1094, "\u2581\u0628\u0644\u0646\u062f": 1095, "\u2581alone": 1096, "\u2581faithful": 1097, "\u2581gives": 1098, "\u2581same": 1099, "\u2581\u062e\u0648\u0627\u06c1\u0634": 1100, "\u2581\u06a9\u0631\u0648\u06ba": 1101, "\u0639": 1102, "\u2581\u0645\u0648\u062c\u0648\u062f": 1103, "\u2581get": 1104, "\u2581\u0622\u0648\u0627\u0632": 1105, "\u2581\u062c\u0646\u062a": 1106, "\u2581sons": 1107, "\u062e\u062f\u0627": 1108, "\u2581trust": 1109, "\u2581Christian": 1110, "\u2581People": 1111, "and": 1112, "\u2581already": 1113, "for": 1114, "\u2581\u0627\u0633\u062a\u0639\u0645\u0627\u0644": 1115, "\u2022": 1116, "\u2581error": 1117, "\u2581\u0628\u0627\u0639\u062b": 1118, "?\u201d": 1119, "\u2581Kingdom": 1120, "\u2581\u0633\u06a9\u06cc\u06ba": 1121, "\u2581page": 1122, "\u2581account": 1123, "\u2581doing": 1124, "\u2581\u0644\u06cc\u0646\u06d2": 1125, "\u2581Paradise": 1126, "\u2581old": 1127, "\u2581\u0630\u0631\u06cc\u0639\u06d2": 1128, "\u2581\u062f\u0639\u0627": 1129, "\u2581Witnesses": 1130, "\u2581\u0633\u06a9\u062a\u06cc": 1131, "\u2581brothers": 1132, "\u2581Unto": 1133, "\u2581etc": 1134, "\u2581\u0645\u062a\u06cc": 1135, "\u2581fathers": 1136, "\u2581verses": 1137, "\u2581\u0631\u0648\u0634\u0646": 1138, "\u2581\u062f\u0634\u0645\u0646": 1139, "\u2581fight": 1140, "\u2581lie": 1141, "\u2581asked": 1142, "\u2581\u0635\u0627\u062d\u0628": 1143, "\u2581\u0630\u0631\u06cc\u0639\u06c1": 1144, "\u2581\u06cc\u0648\u06ba": 1145, "\u2581\u0646\u06c1\u0631\u06cc\u06ba": 1146, "\u2581\u0645\u0644\u06d2": 1147, "\u2581\u0645\u0636\u0628\u0648\u0637": 1148, "\u2581manifest": 1149, "\u2581\u0645\u062e\u062a\u0644\u0641": 1150, "\u2581anyone": 1151, "\u2581\u0627\u062d\u0633\u0627\u0646": 1152, "\u2581Their": 1153, "\u2581\u062c\u0646\u06af": 1154, "Muhammad": 1155, "\u2581messengers": 1156, "\u2581\u0628\u0648\u0644\u06d2": 1157, "\u2581\u0627\u0637\u0627\u0639\u062a": 1158, "\u2581sky": 1159, "\u2581\u06c1\u0648\u06af\u0626\u06d2": 1160, "\u2581\u0639\u0642\u0644": 1161, "\u2581\u0634\u0631\u0648\u0639": 1162, "\u0644": 1163, "\u2581\u0633\u0645\u062c\u06be\u062a\u06d2": 1164, "\u2581\u06f1\u06f2": 1165, "\u2581\u0635\u0628\u062d": 1166, "\u2581\u062e\u0648\u0634\u062e\u0628\u0631\u06cc": 1167, "\u0627\u0644\u0644\u06c1": 1168, "\u2581spend": 1169, "\u25812": 1170, "\u2581Truth": 1171, "\u2581\u0646\u0632\u062f\u06cc\u06a9": 1172, "If": 1173, "!)": 1174, "\u2581\u067e\u06c1\u0646\u0686": 1175, "\u2581Christ": 1176, "\u0646\u06c1\u0627\u06cc\u062a": 1177, "\u2581far": 1178, "And": 1179, "\u2581\u0627\u0644\u0633": 1180, "\u2581\u0633\u0686": 1181, "\u2581Will": 1182, "\u0633\u0628": 1183, "\u2581\u0628\u06cc\u0648\u06cc": 1184, "\u2581\u0642\u062f\u0631": 1185, "\u2581fact": 1186, "\u2581\u0628\u06be\u06cc\u062c\u06d2": 1187, "\u2581\u0639\u0644\u06cc\u06be": 1188, "\u2581whosoever": 1189, "\u2581works": 1190, "\u2581\u0645\u0648\u0633": 1191, "\u2581\u0627\u062f\u0627": 1192, "\u0633\u062c\u062f\u06c1": 1193, "\u2581wish": 1194, "You": 1195, "\u2581\u0633\u0648\u0627\u0644": 1196, "\u2581\u0628\u0686\u0627": 1197, "doers": 1198, "\u2581\u0633\u0646\u0627": 1199, "\u2581Forgiving": 1200, "\u2581\u067e\u06c1\u0644\u06cc": 1201, "\u2581again": 1202, ",\"": 1203, "\u2581\u0644\u0627\u0626\u06cc\u06ba": 1204, "\u2581face": 1205, "\u0627\u067e\u0646\u06d2": 1206, "\u2581receive": 1207, "\u2581\u06f1\u06f5": 1208, "\u2581\u06f7": 1209, "\u2581\u0644\u06a9\u06be\u0627": 1210, "\u2581\u0642\u0627\u0628\u0644": 1211, "\u2581tidings": 1212, "\u2581\u06cc\u0639\u0646\u06cc": 1213, "\u2581\u062a\u0639\u0644\u06cc\u0645": 1214, "\u2581\u062c\u0627\u0646\u0627": 1215, "\u2581\u0631\u06a9\u06be\u06cc": 1216, "\u2581\u0627\u0686\u06be\u06d2": 1217, "\u2581\u06a9\u06cc\u0633\u0627\u062a\u06be": 1218, "\u2581\u06a9\u0627\u0631": 1219, "\u2581\u0636\u0631\u0648\u0631\u062a": 1220, "\u2581something": 1221, "\u2581\u062f\u06cc\u0646\u0627": 1222, "\u2581desires": 1223, "\u2581\u0648\u0627\u0642\u0639\u06cc": 1224, "\u2581\u0622\u0626\u06cc": 1225, "\u2581\u06a9\u0644\u06cc\u0633\u06cc\u0627": 1226, "\u2581\u0628\u0627\u062f\u0634\u0627\u06c1": 1227, "\u2581\u06f1\u06f1": 1228, "\u2581\u062a\u062c\u06be": 1229, "\u2581\u067e\u0631\u06c1\u06cc\u0632\u06af\u0627\u0631": 1230, "\u2581wives": 1231, "\u2581new": 1232, "\u2581\u0631\u0648\u062d": 1233, "\u2581taste": 1234, "\u2581\u0627\u062c\u0627\u0632\u062a": 1235, "\u2581\u0628\u06cc\u0679\u06d2": 1236, "Our": 1237, "\u2581covenant": 1238, "\u2581\u0628\u06c1\u0646": 1239, "\u2581Word": 1240, "\u2581\u062c\u06cc": 1241, "\u2581disbelieved": 1242, "\u2581food": 1243, "\u2581provided": 1244, "\u2581Such": 1245, "\u2581drink": 1246, "\u2581gardens": 1247, "\u2581lies": 1248, "\u2581\u0622\u06cc\u0627\u062a": 1249, "\u2581\u0628\u0686\u0648\u06ba": 1250, "\u2581harm": 1251, "\u2581\u0633\u0627\u0631\u06d2": 1252, "\u2581\u0622\u062e\u0631": 1253, "\u2581\u06a9\u06be\u0691\u06d2": 1254, "\u2581\u06a9\u06cc\u0633\u0627": 1255, "\u2581\u06f8": 1256, "\u2581\u06f9": 1257, "\u0626\u06d2": 1258, "What": 1259, "\u2581\u0686\u0644": 1260, "\u2581\u0628\u062f\u0644\u06d2": 1261, "\u2581\u062f\u0627\u062f\u0627": 1262, "\u2581hell": 1263, "\u2581\u0628\u0631\u06cc": 1264, "\u06ba": 1265, "\u2581going": 1266, "\u0644\u0627\u0645": 1267, "\u2581\u0628\u06c1\u062a\u0631\u06cc\u0646": 1268, "\u2581home": 1269, "\u2581\u0628\u0627\u0628\u062a": 1270, "\u2581\u062f\u06cc\u06a9\u06be\u0646\u06d2": 1271, "\u2581\u0641\u0631\u0634\u062a\u0648\u06ba": 1272, "It": 1273, "\u2581\u067e\u06a9\u0691": 1274, "\u2581\u0679\u06be\u06cc\u06a9": 1275, "\u2581\u067e\u0648\u0644\u0633": 1276, "\u2581rivers": 1277, "\u2581mountains": 1278, "\u2581\u062a\u0635\u0648\u06cc\u0631": 1279, "\u2581times": 1280, "\u2581\u062c": 1281, "\u2581serve": 1282, "\u2581\u062c\u06c1\u0627\u062f": 1283, "\u2581blessings": 1284, "\u2581\u0628\u0627\u063a": 1285, "\u2581look": 1286, "\u2581\u067e\u0646\u0627\u06c1": 1287, "\u2581makes": 1288, "\u2581\u0627\u0646\u0635\u0627\u0641": 1289, "He": 1290, "\u2581\u0628\u0627\u0632": 1291, "\u2581\u062c\u0644\u062f\u06cc": 1292, "\u2581provision": 1293, "\u2581hope": 1294, "\u2581share": 1295, "\u2581today": 1296, "\u2581\u06a9\u06be\u0644\u06cc": 1297, "as": 1298, "\u2581\u0633\u0644\u0633\u0644\u06d2": 1299, "\u2581recompense": 1300, "\u2581\u0646\u0641\u0633": 1301, "\u2581\u0641\u0631\u0645\u0627\u0626\u06cc": 1302, "\u2581\u0639\u0648\u0631\u062a\u06cc\u06ba": 1303, "\u2581denied": 1304, "\u2581sea": 1305, "\u2581saw": 1306, "\u2581knew": 1307, "\u2581having": 1308, "\u2581sun": 1309, "\u0639\u0627": 1310, "\u2581\u0645\u0635\u06cc\u0628\u062a": 1311, "\u2581\u0631\u06a9\u06be\u06d2": 1312, "\u2581\u0627\u0646\u062a\u0638\u0627\u0631": 1313, "\u2581\u0633\u06a9\u06d2": 1314, "\u2581\u067e\u06a9\u0627\u0631": 1315, "\u2581\u06a9\u06be\u0627": 1316, "\u2581Noah": 1317, "\u2581\u0646\u0627\u0641\u0631\u0645\u0627\u0646\u06cc": 1318, "\u2581\u0645\u0633\u0644\u0645\u0627\u0646": 1319, "\u2581thereof": 1320, "\u2581\u062a\u0627\u06c1\u0645": 1321, "\u2581authority": 1322, "\u2581\u0627\u0644\u0628\u062a\u06c1": 1323, "\u2581benefit": 1324, "\u2581\u0642": 1325, "\u2581kind": 1326, "\u2581\u0645\u062d\u0636": 1327, "\u2581\u0644\u0639\u0646\u062a": 1328, "\u2581messenger": 1329, "\u2581\u06a9\u0626\u06cc": 1330, "\u2581\u062f\u0648\u0633\u0631\u06cc": 1331, "\u2581term": 1332, "\u2581\u062a\u06cc\u0646": 1333, "\u2581\u06f1\u06f4": 1334, "Do": 1335, "\u2581under": 1336, "\u2581\u0641\u0633\u0627\u062f": 1337, "\u2581greater": 1338, "\u2581\u06c1\u0648\u062c\u0627\u0626\u06d2": 1339, "\u2581judge": 1340, "\u2581\u0686\u0627\u06c1\u06cc\u06ba": 1341, "\u2581\u0645\u0634\u0631\u06a9": 1342, "\u2581praise": 1343, "\u2581\u0637\u0627\u0642\u062a": 1344, "\u2581Let": 1345, "\u2581truthful": 1346, "\u2581whether": 1347, "\u2581\u0628\u062e\u0634": 1348, "\u2581\u0628\u0686\u06d2": 1349, "\u2581\u06a9\u06c1\u062a\u0627": 1350, "\u2581cast": 1351, "\u2581associate": 1352, "\u2581\u0633\u0686\u0627": 1353, "\u2581\u0645\u0631\u06cc\u0645": 1354, "\u2581Nay": 1355, "\u2581remain": 1356, "\u2581\u06c1\u0648\u06af\u06cc\u0627": 1357, "\u2581\u0644\u06cc": 1358, "\u2581\u062d\u0636\u0648\u0631": 1359, "\u2581faces": 1360, "\u2581lest": 1361, "\u06af\u06cc": 1362, "\u2581\u0628\u0646\u062f\u06d2": 1363, "\u2581equal": 1364, "\u2581\u0622\u062a\u06d2": 1365, "\u2581\u062f\u0648\u06ba": 1366, "\u2581\u06f1\u06f3": 1367, "\u2581\u062a\u0644\u0627\u0634": 1368, "\u2581still": 1369, "\u2581use": 1370, "\u0648\u0622\u0644\u06c1": 1371, "\u2581\u062a\u06cc\u0631\u0627": 1372, "\u2581thus": 1373, "\u2581\u0631\u0627\u0633\u062a": 1374, "\u2581\u0633\u0627\u0645\u0627\u0646": 1375, "\u06cc\u0646": 1376, "\u2581\u0627\u062a\u0627\u0631\u0627": 1377, "\u2581\u067e\u06c1\u0646\u0686\u06d2": 1378, "\u2581\u0631\u06a9\u06be\u06cc\u06ba": 1379, "\u2581known": 1380, "\u2581mother": 1381, "\u2581soon": 1382, "\u2581\u0686\u0627\u06c1\u06cc\u06d2": 1383, "\u2581wronged": 1384, "\u2581wisdom": 1385, "\u2581/": 1386, "\u2581\u062f\u0644\u06cc\u0644": 1387, "\u2581forbidden": 1388, "\u2581\u0627\u0679\u06be\u0627": 1389, "\u2581believing": 1390, "\u2581feel": 1391, "\u2581\u062a\u0633\u0628\u06cc\u062d": 1392, "\u2581three": 1393, "\u2581\u0645\u062d\u0641\u0648\u0638\u06c1": 1394, "\u2581\u0627\u0646\u062f\u0631": 1395, "\u2581\u0627\u0646\u0633\u0627\u0646\u0648\u06ba": 1396, "\u2581\u0631\u062c\u0648\u0639": 1397, "\u2581\u062c\u0644\u062f": 1398, "God": 1399, "\u2581\u0622\u0624": 1400, "\u2581\u062f\u06cc\u06d2": 1401, "\u2581pay": 1402, "\u2581\u0627\u0628\u06be\u06cc": 1403, "\u2581Qur": 1404, "\u2581David": 1405, "\u2581free": 1406, "\u2581\u0635\u0648\u0631\u062a": 1407, "\u2581living": 1408, "\u2581Scripture": 1409, "\u2581\u0642\u0627\u062f\u0631": 1410, "\u2581\u06a9\u06be\u0644\u0627": 1411, "\u2581\u0631\u0648\u06a9": 1412, "\u2581city": 1413, "\u2581followed": 1414, "\u2581souls": 1415, "\u2581present": 1416, "\u2581\u0633\u0628\u0628": 1417, "\u2581\u0688\u0627\u0644\u0627": 1418, "\u2581spiritual": 1419, "\u2581\u0627\u062e\u062a\u0644\u0627\u0641": 1420, "\u2581\u0627\u06af\u0631\u0686\u06c1": 1421, "\u2581\u0630\u0631\u0627": 1422, "\u2581\u0622\u0632\u0645\u0627\u0626\u0634": 1423, "\u2581\u0686\u0646\u062f": 1424, "\u2581stand": 1425, "\u2581\u067e\u06be\u0644": 1426, "\u2581during": 1427, "\u2581patient": 1428, "\u2581few": 1429, "\u2581\u067e\u0691\u06be": 1430, "\u062c\u0648": 1431, "\u2581\u0645\u062d\u0641\u0648\u0638": 1432, "\u2581gods": 1433, "\u2581Children": 1434, "\u2581\u0644\u0648\u0679": 1435, "\u2581\u0631\u0627\u0647": 1436, "\u2581\u062e\u0627\u0646\u062f\u0627\u0646": 1437, "\u2581\u062f\u0627\u0624\u062f": 1438, "\u2581\u0628\u0627\u0637\u0644": 1439, "\u2581sight": 1440, "\u2581\u0679\u06be\u06a9\u0627\u0646\u0627": 1441, "all": 1442, "\u2581flow": 1443, "\u2581\u0622\u062a\u0627": 1444, "\u2581\u06a9\u06c1\u06d2": 1445, "\u2581number": 1446, "\u2581\u0632\u06cc\u0627\u062f\u062a\u06cc": 1447, "\u2581severe": 1448, "\u2581\u0631\u0648\u0632\u06cc": 1449, "\u2581\u0628\u06be\u06cc\u062c": 1450, "\u2581\u06a9\u06be\u0627\u0624": 1451, "\u2581\u06a9\u06be\u0627\u0646\u0627": 1452, "\u2581truly": 1453, "\u2581apostles": 1454, "\u2581till": 1455, "\u2581congregation": 1456, "\u2581\u0645\u062a": 1457, "from": 1458, "\u2581\u0648\u0627\u0631\u062b": 1459, "\u2581\u0639\u0645\u0631": 1460, "\u2581\u0622\u0633\u0627\u0646": 1461, "\u2581Knowing": 1462, "\u2581\u06af\u0648\u06cc\u0627": 1463, "\u2581\u0637\u0644\u0628": 1464, "\u2581\u06f1\u06f7": 1465, "\u2581\u0645\u0648\u0642\u0639": 1466, "\u2581\u06af\u0632\u0627\u0631": 1467, "\u2581\u067e\u0627\u06a9\u06cc\u0632\u06c1": 1468, "\u2581Adam": 1469, "\u2581\u062f\u0648\u0628\u0627\u0631\u06c1": 1470, "\u2581forever": 1471, "\u2581Some": 1472, "\u2581morning": 1473, "\u2581enemy": 1474, "\u2581\u0644\u0627\u0624": 1475, "\u2581toward": 1476, "\u0624\u06ba": 1477, "\u2581\u0645\u06c1\u0644\u062a": 1478, "est": 1479, "\u2581accept": 1480, "soever": 1481, "\u2581\u0632\u0628\u0631\u062f\u0633\u062a": 1482, "\u2581\u062c\u0627\u0631\u06cc": 1483, "\u2581returned": 1484, "\u2581\u06af": 1485, "\u2581\u0628\u06be\u0631\u0648\u0633\u06c1": 1486, "\u2581went": 1487, "\u2581course": 1488, "it": 1489, "\u2581gone": 1490, "\u2581Had": 1491, "\u2581commanded": 1492, "\u2581\u067e\u0627": 1493, "\u062f\u0627\u0631": 1494, "\u2581\u06f1\u06f6": 1495, "\u2581\u062e\u062a\u0645": 1496, "\u2581\u06af\u0646\u0627\u06c1\u0648\u06ba": 1497, "\u2581\u067e\u06cc\u063a\u0627\u0645": 1498, "\u2581\u0627\u0679\u06be\u0627\u0626\u06d2": 1499, "\u2581\u0645\u0642\u0627\u0628\u0644\u06c1": 1500, "\u06a9\u0644": 1501, "\u2581warner": 1502, "\u2581\u0622\u062f\u0645": 1503, "on": 1504, "\u2581rejected": 1505, "\u2581\u0645\u0631\u062f\u0648\u06ba": 1506, "\u2581\u06a9\u0627\u0634": 1507, "\u2581\u06c1\u0648\u062c\u0627\u0626\u06cc\u06ba": 1508, "\u2581\u0622\u0646\u06a9\u06be\u0648\u06ba": 1509, "\u2581\u0627\u0644\u06af": 1510, "\u2581art": 1511, "\u2581\u06cc\u0648\u062d\u0646\u0627": 1512, "\u2581Joseph": 1513, "\u2581answer": 1514, "\u2581\u0645\u0639\u0627\u0645\u0644\u06c1": 1515, "\u2581Even": 1516, "\u2581\u0633\u0627\u0631\u06cc": 1517, ");": 1518, "\u0642\u0631\u0622\u0646": 1519, "\u2581\u0628\u062f\u0644": 1520, "\u2581\u0632\u0648\u0631": 1521, "\u2581\u062f\u0631\u062e\u062a": 1522, "\u2581\u0637\u0631\u06cc\u0642\u06c1": 1523, "\u2581\u0645\u0644\u0627": 1524, "\u2581consider": 1525, "\u2581ways": 1526, "\u2581\u0648\u0627\u0644\u062f\u06cc\u0646": 1527, "\u2581\u06cc\u0639\u0642\u0648\u0628": 1528, "\u2581\u06a9\u06c1\u0627\u06ba": 1529, "\u2581lead": 1530, "\u2581\u062a\u0628": 1531, "\u0646\u0627": 1532, "\u2581\u06a9\u06be\u0627\u0646\u06d2": 1533, "\u2581\u062c\u0627\u062f\u0648": 1534, "\u2581warn": 1535, "\u2581\u0631\u0648\u062d\u0627\u0646\u06cc": 1536, "\u2581\u0627\u0645\u06cc\u062f": 1537, "\u0639\u0630\u0627\u0628": 1538, "\u2581hard": 1539, "\u2581\u06c1\u0648\u06ba\u06d4": 1540, "\u2581\u0628\u06cc\u0679\u06be\u06d2": 1541, "\u2581\u0628\u0627\u0642\u06cc": 1542, "er": 1543, "\u2581within": 1544, "\u2581book": 1545, "\u2581woman": 1546, "\u2581around": 1547, "\u2581reject": 1548, "\u2581\u067e\u0691": 1549, "\u2581Gardens": 1550, "\u2581Hour": 1551, "\u2581\u0628\u0627\u06c1\u0631": 1552, "\u2581\u067e\u0627\u06cc\u0627": 1553, "\u2581\u0645\u0679\u06cc": 1554, "\u2581\u062d\u0644\u0627\u0644": 1555, "\u2581\u067e\u06c1\u0627\u0691": 1556, "\u2581hold": 1557, "\u2581act": 1558, "\u2581reach": 1559, "\u2581refuge": 1560, "\u2581bestowed": 1561, "\u2581\u0627\u06c1\u0645": 1562, "\u201c": 1563, "\u2581Therefore": 1564, "\u2581partners": 1565, "\u2581\u067e\u0627\u0626\u06cc\u06ba": 1566, "\u2581heard": 1567, "\u2581blind": 1568, "\u2581according": 1569, "\u2581\u0645\u0634\u06a9\u0644": 1570, "\u2581\u0635\u0627\u062d\u0628\u0627\u0646": 1571, "\u2581\u0622\u0646\u06a9\u06be\u06cc\u06ba": 1572, "\u2581\u0641\u0631\u0645\u0627\u0624": 1573, "\u2581\u0688\u0631\u0627\u0646\u06d2": 1574, "\u2581listen": 1575, "\u2581\u067e\u0627\u0626\u06d2": 1576, "\u2581\u0645\u0632\u06c1": 1577, "\u2581\u0628\u0627\u062e\u0628\u0631": 1578, "\u2581\u06a9\u0627\u0646": 1579, "\u2581\u06af\u0645\u0627\u0646": 1580, "\u2581along": 1581, "\u2581\u0631\u06c1\u0646\u0627": 1582, "\u2581read": 1583, "\u2581caused": 1584, "\u2581pray": 1585, "\u2581\u0646\u06af\u0627\u06c1": 1586, "\".": 1587, "\u2581here": 1588, "\u2581\u062e\u0648\u0627\u06c1": 1589, "\u2581easy": 1590, "\u2581\u063a\u0645": 1591, "\u2581grace": 1592, "\u2581\u0645\u0633\u0644\u0645\u0627\u0646\u0648\u06ba": 1593, "\u2581\u0645\u0628\u062a\u0644\u0627": 1594, "\u2581\u0645\u0627\u0631": 1595, "\u2581\u0633\u0627": 1596, "\u2581making": 1597, "\u2581She": 1598, "\u2581\u0628\u062e\u0634\u0634": 1599, "\u2581\u0628\u0646\u0627\u0646\u06d2": 1600, "\u2581prepared": 1601, "\u2581thought": 1602, "\u2581\u0633\u0648\u0631\u062c": 1603, "\u2581friends": 1604, "\u2581change": 1605, "\u2581\u0644\u0627": 1606, "\u2581measure": 1607, "\u2581\u0647": 1608, "\u2581pass": 1609, "\u2581\u0633\u0644\u0627\u0645": 1610, "\u2581\u0633\u0631\u06a9\u0634\u06cc": 1611, "\u0627\u067e\u0646\u06cc": 1612, "\u2581mind": 1613, "\u2581\u062a\u06be\u0627\u06d4": 1614, "\u2581certain": 1615, "%": 1616, "\u2581Did": 1617, "\u2581\u0628\u0646\u0627\u062a\u06d2": 1618, "\u2581message": 1619, "\u2581reason": 1620, "\u2581\u0628\u06be\u0631": 1621, "\u2581\u062f\u0648\u0631\u0627\u0646": 1622, "\u2581\u067e\u0644\u0679": 1623, "\u2581Jews": 1624, "\u2581\u0628\u06be\u0627\u0626\u06cc\u0648\u06ba": 1625, "\u2581\u0646\u06a9\u0627\u062d": 1626, "\u2581guides": 1627, "\u2581duty": 1628, "\u2581\u0634\u0627\u0646": 1629, "\u2581punish": 1630, "\u2581\u062c\u0632\u0627": 1631, "\u2581taught": 1632, "\u2581\u063a\u06cc\u0628": 1633, "\u2581\u0634\u0631\u06a9": 1634, "\u2581\u0628\u0633\u062a\u06cc": 1635, "\u2581\u0686\u0627\u0631": 1636, "\u2581\u0639\u0631\u0636": 1637, "\u2581swear": 1638, "\u2581\u06c1\u0627\u062a\u06be\u0648\u06ba": 1639, "\u2581\u062a\u0639\u0631\u06cc\u0641": 1640, "\u2581\u0628\u0627\u0648\u062c\u0648\u062f": 1641, "\u2581\u0635\u062d\u06cc\u062d": 1642, "\u0611": 1643, "\u2581learn": 1644, "\u2581bounty": 1645, "\u2581child": 1646, "\u2581\u0686\u06a9\u06cc": 1647, "\u2581seized": 1648, "\u2581unless": 1649, "\u2581fall": 1650, "\u2581\u0686\u0644\u0627": 1651, "\u2581destroy": 1652, "\u2581\u06a9\u0631\u0631\u06c1\u06d2": 1653, "\u2581create": 1654, "\u2581\u0644\u0648\u0637": 1655, "\u2581straight": 1656, "\u2581\u06a9\u06be\u0627\u062a\u06d2": 1657, "\u2581mighty": 1658, "\u2581\u0627\u0648": 1659, "\u2581wicked": 1660, "\u2581\u0633\u0627\u062a": 1661, "\u2581\u0633\u0627\u062a\u06be\u06cc": 1662, "\u2581\u06f1\u06f9": 1663, "\u2581willed": 1664, "\u2581Musa": 1665, "\u2581\u062e\u0648\u0646": 1666, "\u2581helped": 1667, "\u2581\u0628\u0646\u062f": 1668, "\u2581open": 1669, "\u062a\u06cc": 1670, "\u2581Mary": 1671, "\u2581Mighty": 1672, "\u2581\u0646\u0648\u0631": 1673, "\u2581lost": 1674, "\u2581case": 1675, "\u2581archive": 1676, "\u2581kill": 1677, "\u2581due": 1678, "\u2581house": 1679, "\u2581\u062c\u0627\u0646\u0628": 1680, "\u2581Last": 1681, "\u2581aware": 1682, "\u2581\u0622\u062c\u0627\u0626\u06d2": 1683, "y": 1684, "\u2581favour": 1685, "\u2581please": 1686, "\u2581\u0645\u062f\u062a": 1687, "\u2581\u062a\u0635\u062f\u06cc\u0642": 1688, "\u2581homes": 1689, "\u2581group": 1690, "\u2581Now": 1691, "\u2581\u0628\u062a\u0627\u06cc\u0627": 1692, "\u2581\u062d\u0641\u0627\u0638\u062a": 1693, "\u2581seven": 1694, "\u2581passed": 1695, "\u2581\u0628\u0631\u06d2": 1696, "\u2581grieve": 1697, "\u2581\u067e\u0627\u0646\u06d2": 1698, "\u2581\u06a9\u0631\u062f\u06cc\u06ba": 1699, "\u2581\u0648\u0627\u0642\u0641": 1700, "\u2581provide": 1701, "\u2581\u0645\u0642\u0627\u0645": 1702, "\u2581*": 1703, "\u2581\u06a9\u0627\u0645\u06cc\u0627\u0628\u06cc": 1704, "\u2581\u0645\u0637\u0644\u0628": 1705, "\u2581abide": 1706, "re": 1707, "\u2581Believers": 1708, "\u2581received": 1709, "\u2581\u0639\u0638\u06cc\u0645": 1710, "\u2581\u0631\u0648\u0634\u0646\u06cc": 1711, "\u2581Whoever": 1712, "\u2581brings": 1713, "\u2581\u06af\u0631": 1714, "\u2581However": 1715, "\u2581glad": 1716, "\u2581\u0642\u0648\u062a": 1717, "\u2581With": 1718, "\u2581\u062c\u06be\u0648\u0679\u06d2": 1719, "\u2581\u0633\u0646\u062a\u06d2": 1720, "\u2581whomever": 1721, "\u2581young": 1722, "\u2581high": 1723, "\u2581\u06a9\u0631\u0646\u06cc": 1724, "\u25813": 1725, "\u2581\u062f\u06cc\u06a9\u06be\u06d2": 1726, "\u2581\u067e\u06cc\u0679\u06be": 1727, "\u2581\u06f1\u06f8": 1728, "\u2581Are": 1729, "\u2581\u0645\u062d\u0633\u0648\u0633": 1730, "\u2581\u0645\u0630\u0627\u0642": 1731, "\u2581firm": 1732, "\u06a9": 1733, "\u2581falsehood": 1734, "\u2581righteousness": 1735, "\u2581\u067e\u0691\u06be\u06cc\u06ba": 1736, "or": 1737, "\u2581thanks": 1738, "\u2581\u067e\u0631\u0633\u062a\u0634": 1739, "\u2581\u06f2\u06f0": 1740, "\u2581\u06f2\u06f4": 1741, "\u2581age": 1742, "\u2581\u062b\u0648\u0627\u0628": 1743, "\u2581\u062f\u0631\u06cc\u0627": 1744, "\u2581guilty": 1745, "\u2581disbelief": 1746, "\u2581blood": 1747, "\u2581prayers": 1748, "\u2581wrongdoers": 1749, "\u2581\u0645\u0631": 1750, "\u2581single": 1751, "\u0627\u06cc\u06a9": 1752, "\u2581\u0642\u062f\u0645": 1753, "\u2581\u0635\u0631\u06cc\u062d": 1754, "\u2581rain": 1755, "\u2581saved": 1756, "\u2581Judgment": 1757, "\u2581earned": 1758, "\u2581Knower": 1759, "\u2581\u06a9\u06c1\u0646\u0627": 1760, "\u0633\u06a9\u06d2": 1761, "\u2581justice": 1762, "\u2581\u0627\u06af\u0644\u06d2": 1763, "\u2581Picture": 1764, "\u2581moon": 1765, "r": 1766, "\u2581lo": 1767, "\u2581losers": 1768, "\u2581behold": 1769, "\u2581accepted": 1770, "\u2581lawful": 1771, "\u2581\u0645\u06c1\u0631": 1772, "\u2581understanding": 1773, "\u2581\u067e\u0627\u0624\u06ba": 1774, "\u2581abode": 1775, "\u2581turns": 1776, "\u2581\u067e\u06a9\u0627\u0631\u062a\u06d2": 1777, "\u2581Signs": 1778, "\u2581\u0628\u0627\u0631\u06af\u0627\u06c1": 1779, "\u2581permission": 1780, "\u06c1\u06d2": 1781, "\u2581houses": 1782, "\u2581guard": 1783, "\u2581\u0644\u06cc\u062a\u0627": 1784, "\u2581year": 1785, "\u2581\u0628\u0631\u06a9\u062a": 1786, "\u2581meet": 1787, "\u2581\u0645\u0646\u06a9\u0631": 1788, "\u2581\u0628\u0627\u062f\u0634\u0627\u06c1\u062a": 1789, "\u2581heed": 1790, "\u2581John": 1791, "\u2581\u0646\u0639\u0645\u062a\u0648\u06ba": 1792, "\u2581cattle": 1793, "\u2581study": 1794, "\u2581poor": 1795, "\u2581\u06a9\u062a\u0646\u06cc": 1796, "\u2581\u062c\u06be\u0679\u0644\u0627\u0624": 1797, "\u2581\u0644\u06a9\u06be": 1798, "\u0627\u0646\u06c1": 1799, "\u2581At": 1800, "\u2581patience": 1801, "\u2581commit": 1802, "\u2581\u0648\u0627\u0642\u0639": 1803, "\u2581\u0686\u0627\u0646\u062f": 1804, "\u2581\u06a9\u0634\u062a\u06cc": 1805, "\u2581\u0634\u0627\u062f\u06cc": 1806, "\u2581\u062c\u06cc\u0633\u06cc": 1807, "\u2581\u067e\u0648\u0631\u06d2": 1808, "\u2581blessed": 1809, "\u2581\u0628\u0631\u0628\u0627\u062f": 1810, "\u2581\u0686\u0644\u0646\u06d2": 1811, "\u2581hypocrites": 1812, "\u2581\u0627\u0631\u0627\u062f\u06c1": 1813, "\u2581Apostle": 1814, "with": 1815, "\u0627\u062a": 1816, "\u2581Of": 1817, "\u2581respect": 1818, "\u2581\u0637\u0631\u06cc\u0642\u06d2": 1819, "\u2581\u0645\u0648\u0645\u0646\u0648\u06ba": 1820, "\u2581bad": 1821, "\u2581\u0646\u0633\u0628\u062a": 1822, "\u2581\u062d\u06a9\u0648\u0645\u062a": 1823, "\u2581\u0646\u06af\u06c1\u0628\u0627\u0646": 1824, "\u06a9\u0627": 1825, "\u2581whatsoever": 1826, "\u2581\u0627\u0646\u06c1\u06cc": 1827, "\u2581marriage": 1828, "\u2581evidence": 1829, "\u2581later": 1830, "\u2581\u0633\u0641\u0631": 1831, "\u2581\u062a\u0646\u06af": 1832, "\u2581\u0627\u0645\u0646": 1833, "\u2581Be": 1834, "\u2581\u0644\u06af\u062a\u0627": 1835, "\u2581\u0630\u0627\u062a": 1836, "\u2581b": 1837, "\u2581increase": 1838, "\u2581\u062c\u06be\u0648\u0679\u0627": 1839, "\u2581\u0628\u0634\u0627\u0631\u062a": 1840, "\u2581\u062d\u0627\u0644\u0627\u062a": 1841, "\u2581false": 1842, "m": 1843, "\u2581fruits": 1844, "\u2581service": 1845, "\u2581\u0646\u0628\u06cc\u0610": 1846, "\u2581\u0631\u0627\u0633\u062a\u06d2": 1847, "\u2581dust": 1848, "\u2581replied": 1849, "\u2581granted": 1850, "\u2581party": 1851, "\u2581\u06c1\u0648\u062c\u0627\u0624": 1852, "\u2581\u0633\u0686\u0627\u0626\u06cc": 1853, "\u2581\u0632\u06a9\u0648": 1854, "\u2581prostrate": 1855, "\u2581\u06a9\u0645\u0632\u0648\u0631": 1856, "\u2581kingdom": 1857, "\u2581\u0628\u06cc\u0679\u0627": 1858, "\u2581\u0633\u0644\u06cc\u0645\u0627\u0646": 1859, "\u2581\u0622\u062a\u06cc": 1860, "\u2581holy": 1861, "\u2581\u0645\u06c1\u0631\u0628\u0627\u0646\u06cc": 1862, ")!": 1863, "\u2581grateful": 1864, "\u2581sure": 1865, "\u2581rest": 1866, "\u2581\u063a\u0636\u0628": 1867, "\u2581coming": 1868, "\u2581\u0630\u0644\u06cc\u0644": 1869, "\u2581\u063a\u0644\u0637": 1870, "Moses": 1871, "\u2581suffer": 1872, "\u2581\u0634\u0645\u0627\u0631": 1873, "\u2581avail": 1874, "\u2581close": 1875, "\u2581\u067e\u0627\u0624": 1876, "\u2581\u0628\u062c\u0627\u0626\u06d2": 1877, "\u2581\u0627\u0645\u062a": 1878, "\u2581Al": 1879, "\u2581\u0644\u0634\u06a9\u0631": 1880, "\u2581\u0639\u0627\u062c\u0632": 1881, "\u2581repent": 1882, "Indeed": 1883, "\u2581\u0644\u0627\u06cc\u0627": 1884, "\u2581warning": 1885, "\u2581speech": 1886, "\u2581\u0645\u063a\u0641\u0631\u062a": 1887, "\u2581\u0627\u062a\u0627\u0631": 1888, "\u0646\u06c1": 1889, "\u2581darkness": 1890, "\u2581repentance": 1891, "\u2581\u0641\u06a9\u0631": 1892, "\u2581placed": 1893, "\u2581purpose": 1894, "\u2581friend": 1895, "\u2581\u0645\u0631\u062a\u0628\u06c1": 1896, "\u0627\u0628": 1897, "\u2581chosen": 1898, "\u2581\u062c\u0627\u0646\u0648\u06ba": 1899, "\u2581sustenance": 1900, "\u2581hidden": 1901, "\u2581yourself": 1902, "\u2581\u0627\u0679\u06be\u0627\u0646\u06d2": 1903, "\u2581\u0646\u0627": 1904, "\u2581\u0641\u0631\u0645\u0627\u0646\u06d2": 1905, "\u2581\u0628\u06be\u0648\u0644": 1906, "\u2581strength": 1907, "\u2581\u0634\u0627\u06af\u0631\u062f": 1908, "\u2581last": 1909, "\u2581\u062a\u0628\u0627\u06c1": 1910, "\u2581seeking": 1911, "\u2581pleased": 1912, "\u2581\u0633\u0648\u0686": 1913, "\u2581\u0631\u06c1\u062a\u0627": 1914, "\u2581\u062f\u06a9\u06be\u0627": 1915, "\u2581\u0645\u0632\u06cc\u062f": 1916, "?'": 1917, "\u2581\u0631\u06a9\u06be\u0646\u0627": 1918, "\u0632\u0645\u0627\u0646\u06d2": 1919, "\u2581\u0631\u0634\u062a\u06c1": 1920, "\u2581\u063a\u06cc\u0631": 1921, "\u2581grant": 1922, "\u2581tree": 1923, "\u2581\u06a9\u06cc\u0627\u06d4": 1924, "\u2581\u0686\u0644\u0648": 1925, "\u2581\u0645\u062a\u0639\u0644\u0642": 1926, "\u2581try": 1927, "\u2581wait": 1928, "\u2581\u062b\u0645\u0648\u062f": 1929, "\u2581\u0646\u0641\u0639": 1930, "\u2581\u0633\u0631\u062f\u0627\u0631": 1931, "\u2581always": 1932, ")?": 1933, "\u067e\u06be\u0631": 1934, "\u2581Noble": 1935, "\u2581fruit": 1936, "\u2581After": 1937, "\u2581\u0628\u0632\u0631\u06af": 1938, "knowing": 1939, "\u2581jinn": 1940, "\u2581someone": 1941, "\u2581delivered": 1942, "\u2581\u062f\u0631\u0633\u062a": 1943, "\u2581killed": 1944, "\u2581\u062f\u0639\u0648\u062a": 1945, "\u2581ourselves": 1946, "\u2581hap": 1947, "\u2581Muslims": 1948, "\u2581nations": 1949, "\u2581backs": 1950, "\u2581\u067e\u0637\u0631\u0633": 1951, "\u2581\u0646\u0626\u06cc": 1952, "\u2581\u067e\u06cc\u063a\u0645\u0628\u0631\u0648\u06ba": 1953, "\u2581really": 1954, "\u2581Which": 1955, "\u2581war": 1956, "\u2581important": 1957, "\u2581enjoy": 1958, "\u2581\u0628\u0646\u062f\u06af\u06cc": 1959, "\u2581folk": 1960, "\u2581ill": 1961, "\u2581\u06f2\u06f1": 1962, "\u0633\u06cc\u062f\u06be\u06cc": 1963, "\u2581\u0627\u0631\u0634\u0627\u062f": 1964, "\u2581\u062f\u06cc\u0627\u06d4": 1965, "E": 1966, "\u2581began": 1967, "\u2581hide": 1968, "\u2581wise": 1969, "\u2581\u0644": 1970, "\u2581enemies": 1971, "\u2581\u0645\u0645\u06a9\u0646": 1972, "\u2581\u0642\u0631\u0628\u0627\u0646\u06cc": 1973, "\u2581\u0644\u0627\u0626\u0642": 1974, "\u2581four": 1975, "\u0621": 1976, "\u2581lives": 1977, "\u2581town": 1978, "\u2581prophet": 1979, "\u2581hasten": 1980, "\u2581\u062f\u06cc\u062a\u06cc": 1981, "\u2581\u0645\u0646\u0639": 1982, "\u0633\u06a9\u06cc": 1983, "\u2581kept": 1984, "\u2581\u067e\u06cc\u0679": 1985, "\u2581\u06f2\u06f2": 1986, "\u06c1\u0645": 1987, "\u2581recite": 1988, "\u2581\u0631\u0627\u0636\u06cc": 1989, "\u2581\u0634\u06d2": 1990, "\u2581conceal": 1991, "wise": 1992, "\u2581\u06c1\u0632\u0627\u0631": 1993, "\u0632": 1994, "\u2581led": 1995, "\u2581\u0633\u06cc\u062f\u06be\u06d2": 1996, "\u2581witnesses": 1997, "\u2581\u0628\u06cc\u0645\u0627\u0631\u06cc": 1998, "\u2581\u0633\u0646\u0627\u0646\u06d2": 1999, "\u0645\u06cc\u06ba": 2000, "\u2581pure": 2001, "\u2581\u0679\u06a9\u0691\u06d2": 2002, "\u258115": 2003, "\u2581apart": 2004, "\u2581slave": 2005, "Who": 2006, "\u2581\u0686\u06c1\u0631": 2007, "\u2581secure": 2008, "\u2581\u0627\u062d\u06a9\u0627\u0645": 2009, "\u2581theirs": 2010, "\u2581\u0628\u0644\u0627": 2011, "\u2581\u062e\u0627\u062f\u0645": 2012, "\u2581Read": 2013, "al": 2014, "\u2581small": 2015, "\u2581following": 2016, "\u2581\u0633\u0631\u06a9\u0634": 2017, "\u062a\u0645": 2018, "\u2581\u067e\u0648\u0634\u06cc\u062f\u06c1": 2019, "\u2581\u062f\u06cc\u06a9\u06be\u062a\u0627": 2020, "\u2581\u062f\u06cc\u06af\u0631": 2021, "\u2581side": 2022, "\u2581different": 2023, "\u2581cut": 2024, "\u2581stay": 2025, "\u2581\u062a\u062f\u0628\u06cc\u0631": 2026, "\u2581\u0627\u0635\u0644\u0627\u062d": 2027, "\u2581From": 2028, "\u2581\u062c\u06be\u0679\u0644\u0627\u0646\u06d2": 2029, "\u2581followers": 2030, ").\"": 2031, "\u2581\u0686\u0644\u062a\u06d2": 2032, "\u2581dispute": 2033, "\u2581strong": 2034, "\u2581raise": 2035, "\u2581burden": 2036, "their": 2037, "\u0635\u0644\u06cc": 2038, "\u2581wrote": 2039, "\u2581Yes": 2040, "\u2581\u0628\u0646\u0627\u0626\u06cc\u06ba": 2041, "\u2581admonition": 2042, "\u2581\u0639\u0627\u0644\u0645": 2043, "\u06a9\u06cc\u0627": 2044, "\u2581\u0634\u0627\u0645": 2045, "\u2581naught": 2046, "\u2581C": 2047, "by": 2048, "\u2581grow": 2049, "\u2581\u06a9\u06cc\u062c\u0626\u06d2": 2050, "\u2581\u0627\u0641\u0633\u0648\u0633": 2051, "\u2581recited": 2052, "\u2581\u062f\u0631": 2053, "\u2581giving": 2054, "\u2581often": 2055, "\u2581Path": 2056, "\u2581ears": 2057, "\u2581established": 2058, "\u2581spread": 2059, "\u2581\u0641\u0631\u06cc\u0628": 2060, "\u2581fast": 2061, "\u2581\u0639\u0627\u062f": 2062, "\u2581feet": 2063, "\u2581remembrance": 2064, "\u2581\u062f\u0631\u06af\u0632\u0631": 2065, "\u2581\u0628\u06c1\u062a\u0627\u0646": 2066, "\u2581either": 2067, "\u2581respite": 2068, "\u2581conduct": 2069, "\u2581question": 2070, "\u2581reached": 2071, "\u0634": 2072, "\u2581\u0646": 2073, "\u2581\u062a\u062e\u062a": 2074, "\u2581\u062a\u06be\u0648\u0691\u0627": 2075, "\u2581\u067e\u0627\u0626\u06cc": 2076, "\u2581\u06a9\u0631\u062f\u06cc": 2077, "\u2581daughters": 2078, "\u2581faithless": 2079, "\u2581protect": 2080, "\u2581terrible": 2081, "\u2581\u0627\u0645\u062b\u0627\u0644": 2082, "\u2581\u0645\u0627\u0646\u062a\u06d2": 2083, "\u25815": 2084, "\u2581creatures": 2085, "\u2581female": 2086, "\u258113": 2087, "\u2581\u0688\u0627\u0644\u06d2": 2088, "\u2581aught": 2089, "\u2581dear": 2090, "\u2581Himself": 2091, "\u2581\u0633\u0645\u0646\u062f\u0631": 2092, "\u2581\u062f\u0648\u0633\u062a\u06cc": 2093, "\u2581\u0631\u0646\u06af": 2094, "\u2581secret": 2095, "\u2581excellent": 2096, "\u2581support": 2097, "\u2581\u0622\u0631\u0627\u0645": 2098, "\u2581plain": 2099, "\u2581Solomon": 2100, "\u2581reveal": 2101, "\u2581test": 2102, "\u2581\u0628\u062e\u0634\u06cc": 2103, "\u2581establish": 2104, "\u2581\u06a9\u06be\u06cc\u062a\u06cc": 2105, "\u2581\u06a9\u0628": 2106, "\u2581generations": 2107, "\u2581\u0645\u0627\u0646\u0648": 2108, "\u2581\u06a9\u0641\u0627\u0631": 2109, "Why": 2110, "that": 2111, "\u2581Can": 2112, "\u2581\u06c1\u0648\u06a9\u0631": 2113, "S": 2114, "\u25814": 2115, "\u2581preaching": 2116, "\u2581liars": 2117, "\u2581least": 2118, "\u2581\u0646\u0627\u0641\u0631\u0645\u0627\u0646": 2119, "\u2581past": 2120, "\u2581\u06a9\u06be\u06cc\u0644": 2121, "\u2581self": 2122, "\u2581talk": 2123, "\u0628": 2124, "\u2581\u062e\u06cc\u0631": 2125, "\u2581reminder": 2126, "\u2581\u0686\u0627\u06c1\u0648": 2127, "\u2581disciples": 2128, "\u2581\u0641\u0631\u0645\u0627\u0646\u0628\u0631\u062f\u0627\u0631": 2129, "\u2581revelation": 2130, "\u2581\u062a\u0631": 2131, "\u062f\u06c1": 2132, "\u0642\u0627\u0628\u0648": 2133, "\u2581fulfilled": 2134, "\u2581sense": 2135, "\u062f\u0646\u06cc\u0627": 2136, "\u2581\u062e\u0648\u0627\u0628": 2137, "\u2581meeting": 2138, "\u2581\u062a\u06a9\u0628\u0631": 2139, "\u2581gain": 2140, "\u2581\u067e\u06a9\u0627\u0631\u0627": 2141, "--": 2142, "\u2581sinners": 2143, "\u2581husband": 2144, "\u2581\u0628\u0627\u062f\u0634\u0627\u06c1\u06cc": 2145, "\u2581\u062c\u0627\u0646\u0648\u0631\u0648\u06ba": 2146, "\u2581\u062c\u06c1": 2147, "\u2581\u0646\u0633\u0644": 2148, "forgiving": 2149, "\u2581cry": 2150, "\u2581Would": 2151, "\u2581result": 2152, "\u2581Mercy": 2153, "A": 2154, "\u2581\u0639\u06cc\u0633\u06cc": 2155, "\u2581Exalted": 2156, "\u2581gather": 2157, "\u2581kindness": 2158, "\u2581\u0633\u0627\u0645\u0646\u0627": 2159, "\u2581\u062c\u06c1\u0627\u0646": 2160, "\u0645\u06cc\u062f": 2161, "\u2581humans": 2162, "\u2581\u0628\u0646\u0627\u0626\u06cc": 2163, "\u2581blame": 2164, "\u2581\u0627\u0635\u0644": 2165, "\u2581\u0688\u0631\u062a\u0627": 2166, "\u2581\u06a9\u0627\u0679": 2167, "\u2581perhaps": 2168, "\u2581state": 2169, "\u2581\u0628\u06be\u06cc\u062c\u06cc": 2170, "\u06c2": 2171, "\u2581\u0633\u0648\u0627\u0631": 2172, "\u2581\u0633\u06cc\u062f\u06be\u0627": 2173, "\u2581\u067e\u06c1\u0627\u0691\u0648\u06ba": 2174, "\u2581\u06f2\u06f3": 2175, "\u2581matters": 2176, "\u2581\u067e\u0691\u0627": 2177, "\u2581favor": 2178, "\u2581avoid": 2179, "\u2581regarding": 2180, "\u2581\u0628\u0631\u062d\u0642": 2181, "\u2581\u0645\u0633\u062c\u062f": 2182, "\u2581See": 2183, "\u2581\u06a9\u0644": 2184, "\u2581Not": 2185, "\u2581\u062d\u0642\u06cc\u0642\u06cc": 2186, "\u2581\u067e\u0691\u06be\u062a\u06d2": 2187, "\u25816": 2188, "\u2581\u0645\u0646\u0627\u0641\u0642": 2189, "\u2581Nor": 2190, "\u2581inspired": 2191, "\u2581\u0636\u0631\u0648\u0631\u06cc": 2192, "\u2581rather": 2193, "\u2581admit": 2194, "\u2581\u0645\u0636\u0645\u0648\u0646": 2195, "\u06c1\u0631": 2196, "\u2581Father": 2197, "\u2581belong": 2198, "\u2581\u0635\u0627\u0644\u062d": 2199, "\u06a9\u0686\u06be": 2200, "\u2581considered": 2201, "\u2581instead": 2202, "\u201d;": 2203, "\u2581beneath": 2204, "\u2581whole": 2205, "\u2581presence": 2206, "\u2581\u062f\u0631\u0648\u0627\u0632\u06d2": 2207, "\u2581\u0634\u0648\u06c1\u0631": 2208, "\u2581\u0645\u0642\u0635\u062f": 2209, "\u2581\u0627\u062b\u0631": 2210, "\u0646\u0627\u062f\u06cc": 2211, "\u2581\u0628\u0631\u0633": 2212, "\u2581\u0627\u062a\u0627\u0631\u06cc": 2213, "\u2581once": 2214, "\u2581produce": 2215, "\u2581portion": 2216, "\u2581\u0633\u0686\u06cc": 2217, "\u0633\u0645": 2218, "\u258114": 2219, "\u2581\u067e\u06c1\u0686\u0627\u0646": 2220, "\u2581loss": 2221, "\u2581\u062f\u0631\u0627\u0635\u0644": 2222, "\u2581\u0633\u0644\u0637\u0646\u062a": 2223, "\u2581\u0645\u0627\u0646": 2224, "\u2581\u062d\u0645\u062f": 2225, "\u2581\u062f\u0646\u0648\u06ba": 2226, "\u2581\u0641\u0631\u0642": 2227, "\u2581\u0627\u0636\u0627\u0641\u06c1": 2228, "\u2581months": 2229, "\u2581magic": 2230, "\u2581\u0645\u0627\u0646\u0646\u062f": 2231, "\u2581\u0646\u06c1\u06cc\u06ba\u06d4": 2232, "\u2581\u0628\u0648\u0644\u0627": 2233, "\u2581King": 2234, "\u2581charity": 2235, "\u2581unseen": 2236, "\u2581Tell": 2237, "at": 2238, "\u2581\u0628\u06cc\u0648\u06cc\u0648\u06ba": 2239, "\u2581\u062a\u06be\u0648\u0691\u06cc": 2240, "\u2581worlds": 2241, "\u2581\u0634\u06a9\u0627\u0631": 2242, "\u2581\u062c\u0627\u062f\u0648\u06af\u0631": 2243, "\u258112": 2244, "\u2581\u062c\u06be\u06af\u0691\u0627": 2245, "\u2581thereby": 2246, "\u2581knoweth": 2247, "\u2581offer": 2248, "\u2581\u0645\u0631\u0636\u06cc": 2249, "\u2581\u0642\u0628\u0644": 2250, "\u2581%": 2251, "\u25813:": 2252, "\u2581Lot": 2253, "\u2581oaths": 2254, "\u2581\u0645\u06a9\u0631": 2255, "\u2581\u0628\u062a\u0627": 2256, "\u2581\u062a\u06a9\u0630\u06cc\u0628": 2257, "\u2581view": 2258, "\u2581however": 2259, "\u2581\u0645\u0644\u0627\u0642\u0627\u062a": 2260, "\u2581strive": 2261, "\u2581walk": 2262, "\u2581\u062c\u0627\u0646\u0648\u0631": 2263, "\u062c": 2264, "\u2581\u0644\u06af\u06cc": 2265, "\u0627\u0624\u06ba": 2266, "\u2581gathered": 2267, "\u2581\u06a9\u06be\u0691\u0627": 2268, "\u2581\u06af\u06cc\u06d4": 2269, "\u2581\u062e\u0627\u0637\u0631": 2270, "\u2581\u063a\u0627\u0641\u0644": 2271, "\u2581idols": 2272, "\u2581ministry": 2273, "\u2581warned": 2274, "\u2581Certainly": 2275, "\u2581\u0644\u06af\u06cc\u06ba": 2276, "\u2581\u06af\u06be\u06cc\u0631": 2277, "\u2581\u0648\u0641\u0627\u062f\u0627\u0631": 2278, "\u2581\u06a9\u062a\u0627\u0628\u0648\u06ba": 2279, "\u2581wants": 2280, "\u2581helper": 2281, "\u2581Peter": 2282, "\u2581forget": 2283, "\u2581\u0622\u06af\u0627\u06c1": 2284, "\u2581\u063a\u0644\u0627\u0645": 2285, "\u2581law": 2286, "\u2581\u0622\u0632\u0627\u062f": 2287, "\u2581\u0645\u0637\u0627\u0644\u0639\u06c1": 2288, "\u2581\u067e\u062a\u06c1": 2289, "\u2581Aware": 2290, "\u2581hearing": 2291, "\u2581submit": 2292, "\u2581\u062a\u0648\u062c\u06c1": 2293, "\u2581\u0645\u0646\u062a\u062e\u0628": 2294, "\u2581Except": 2295, "\u2581judgment": 2296, "\u2581\u0630\u0644\u062a": 2297, "Islamic": 2298, "\u2581reckoning": 2299, "\u2581\u0646\u0627\u062d\u0642": 2300, "\u2581care": 2301, "\u2581pleases": 2302, "\u2581dwell": 2303, "\u2581\u0635\u0644\u06cc": 2304, "\u258120": 2305, "\u2581whereas": 2306, "\u2581\u062d\u0648\u0635\u0644\u06c1": 2307, "\u2581draw": 2308, "\u2581\u0627\u0633\u0644\u0627\u0645": 2309, "\u2581\u06cc\u06c1\u0648\u062f\u06cc": 2310, "\u2581control": 2311, "\u2581affair": 2312, "\u2581Ibrahim": 2313, "\u2581afraid": 2314, "\u2581happy": 2315, "\u2581\u0627\u0645\u0627\u0646\u062a": 2316, "\u2581deliver": 2317, "\u2581cried": 2318, "\u2581\u06a9\u0627\u0645\u06cc\u0627\u0628": 2319, "\u2581reflect": 2320, "\u2581\u062a\u0639\u0644\u0642": 2321, "\u2581\u0645\u062c\u0631\u0645": 2322, "\u2581\u062f\u0648\u0633\u0631\u0627": 2323, "\u2581\u0641\u0627\u0626\u0644\u06cc\u06ba": 2324, "\u2581\u067e\u06be\u0648\u0646\u06a9": 2325, "\u2581Does": 2326, "\u2581taking": 2327, "\u2581Garden": 2328, "\u2581possess": 2329, "\u2581victory": 2330, "\u2581\u06af\u0646\u06c1\u06af\u0627\u0631": 2331, "\u2581offspring": 2332, "\u2581\u062c\u062a\u0646": 2333, "\u2581Faith": 2334, "\u2581\u0641\u0631\u0627\u06c1\u0645": 2335, "\u2581\u0641\u062a\u062d": 2336, "\u2581pious": 2337, "\u2581king": 2338, "\u2581\u062e\u0634\u06a9": 2339, "\u2581\u06af\u0631\u062f\u0646": 2340, "\u2581garden": 2341, "\u2581pleasure": 2342, "They": 2343, "\u2581proud": 2344, "\u2581\u06cc\u0633\u0639\u06cc\u0627\u06c1": 2345, "\u0631\u06d2": 2346, "\u2581Many": 2347, "\u2581drive": 2348, "\u2581waiting": 2349, "\u2581\u0639\u0631\u0634": 2350, "\u2581Oft": 2351, "\u06c3": 2352, "\u2581\u06a9\u06cc\u0633\u06cc": 2353, "\u2581trial": 2354, "\u2581\u0642\u0648\u0645\u0648\u06ba": 2355, "\u2581\u06a9\u0631\u062f\u06c1": 2356, "\u2581\u0645\u0630\u06c1\u0628": 2357, "\u2581\u0645\u062e\u0627\u0644\u0641\u062a": 2358, "\u2581glory": 2359, "\u2581\u0645\u062d\u0628\u0648\u0628": 2360, "\u2581\u0633\u062e\u062a\u06cc": 2361, "\u2581\u063a\u0644\u0637\u06cc": 2362, "\u2581answered": 2363, "\u2581\u0644\u06c1\u0630\u0627": 2364, "\u2581Creator": 2365, "\u2581loves": 2366, "\u2581slaves": 2367, "\u2581Remember": 2368, "\u2581teach": 2369, "\u0631\u06cc": 2370, "\u2581curse": 2371, "\u2581\u06c1\u0627\u0631\u0648\u0646": 2372, "\u0627\u06cc\u0644": 2373, "\u2581journey": 2374, "\u2581\u062a\u0642\u0631\u06cc\u0628\u0627": 2375, "\u061f\"": 2376, "\u2581\u0627\u0644\u0641\u0627\u0638": 2377, "\u2581\u0645\u0646\u0627\u062f\u06cc": 2378, "\u2581\u0646\u06cc\u0627\u0632": 2379, "\u2581\u0648\u0631\u0646\u06c1": 2380, "\u2581proof": 2381, "n": 2382, "\u2581causes": 2383, "\u2581\u062a\u0648\u0691": 2384, "\u2581ungrateful": 2385, "\u2581\u0633\u06a9\u0648": 2386, "\u2581\u067e\u0631\u06c1\u06cc\u0632\u06af\u0627\u0631\u06cc": 2387, "\u2581\u067e\u06be\u06cc\u0646\u06a9": 2388, "\u0627\u06cc\u0645\u0627\u0646": 2389, "\u2581Thamud": 2390, "\u2581beyond": 2391, "\u2581\u06c1\u0644\u0627\u06a9\u062a": 2392, "\u2581\u06a9\u062a\u0646\u0627": 2393, "\u2581\u0631\u062d\u0645\u0627\u0646": 2394, "\u2581\u0686\u06a9\u06be\u0648": 2395, "\u2581continue": 2396, "\u258111": 2397, "\u2581\u0641\u0644\u0627\u062d": 2398, "\u2581ordained": 2399, "\u2581\u0644\u06cc\u0646\u0627": 2400, "\u2581worldly": 2401, "\u258116": 2402, "\u2581counsel": 2403, "\u2581\u067e\u0648\u062c\u062a\u06d2": 2404, "\u2581fair": 2405, "\u2581\u062c\u06be\u0679\u0644\u0627": 2406, "\u2581\u0641\u0648\u0631\u0627": 2407, "\u2581\u0633\u0646\u062a\u0627": 2408, "\u2581\u0642\u0633\u0645\u06cc\u06ba": 2409, "\u2581\u06af\u0627\u0631": 2410, "\u2581\u0622\u062f\u0645\u06cc\u0648\u06ba": 2411, "\u2581suffering": 2412, "\u2581hast": 2413, "\u2581\u0627\u062a\u0646\u0627": 2414, "\u2581\u062e\u062f\u0627\u0626\u06d2": 2415, "\u2581arrogant": 2416, "\u2581next": 2417, "\u2581\u0645\u0627\u0646\u06af": 2418, "\u2581\u06a9\u0631\u0646\u062a\u06be\u06cc\u0648\u06ba": 2419, "\u2581clearly": 2420, "\u2581blessing": 2421, "\u258110": 2422, "\u2581fully": 2423, "\u2581touch": 2424, "\u2581\u067e\u06cc\u0646\u06d2": 2425, "\u2581\u0628\u062f": 2426, "\u2581\u06f2\u06f8": 2427, "\u2581loving": 2428, "\u2581wind": 2429, "\u2581wanted": 2430, "\u2581\u0641\u0631\u0636": 2431, "When": 2432, "\u2581manner": 2433, "\u2581servant": 2434, "\u2581\u0645\u06cc\u062f\u0627\u0646": 2435, "\u2581body": 2436, "\u2581Said": 2437, "\u2581standing": 2438, "\u2581\u0639\u0627\u0645": 2439, "\u2581clay": 2440, "\u2581\u0628\u0686\u06c1": 2441, "\u2581\u062a\u0627\u0628\u0639": 2442, "\u2581\u0634\u0631\u0627\u0628": 2443, "\u062c\u0628": 2444, "\u2581\u062d": 2445, "\u2581\u0644\u062d\u0627\u0638": 2446, "\u2581\u06a9\u06cc\u06d4": 2447, "\u2581steadfast": 2448, "\u2581\u0628\u0686": 2449, "\u2581\u062a\u0628\u0627\u06c1\u06cc": 2450, "\u2581\u067e\u06cc": 2451, "\u0642\u06cc\u0627\u0645\u062a": 2452, "\u2581\u0628\u0627\u063a\u0648\u06ba": 2453, "\u2581evening": 2454, "merciful": 2455, "\u2581wrath": 2456, "\u2581\u062c\u06be\u0679\u0644\u0627\u062a": 2457, "\u2581\u0645\u06a9\u0645\u0644": 2458, "\u2581mentioned": 2459, "\u2581sacrifice": 2460, "\u2581inform": 2461, "\u25818": 2462, "\u2581sisters": 2463, "\u2581\u06a9\u0631\u06cc\u06ba\u06d4": 2464, "\u2581\u06f2\u06f5": 2465, "\u2581\u0628\u06cc\u0679\u0648\u06ba": 2466, "\u2581\u062f\u0631\u062c": 2467, "\u2581sees": 2468, "\u2581else": 2469, "\u2581\u062f\u0631\u06cc\u0627\u0641\u062a": 2470, "\u2581complete": 2471, "\u2581story": 2472, "\u2581decree": 2473, "\u2581\u062f\u0648\u062f\u06be": 2474, "\u2581corruption": 2475, "\u2581showed": 2476, "\u2581\u06c1\u0648\u06af\u0626\u06cc": 2477, "\u2581Holy": 2478, "\u2581\u0641\u06cc\u0635\u0644\u06d2": 2479, "\u2581Throne": 2480, "\u2581\u0648\u0627\u0633\u0637\u06d2": 2481, "\u2581takes": 2482, "\u2581invoke": 2483, "\u2581language": 2484, "\u2581Psalm": 2485, "\u2581polytheists": 2486, "\u2581companions": 2487, "\u2581forward": 2488, "\u2581\u06a9\u0631\u0645": 2489, "\u2581Scriptures": 2490, "\u2581thereafter": 2491, "\u0631\u062f\u0648\u06ba": 2492, "\u2581\u0632\u06cc\u0627\u062f\u0647": 2493, "\u2581affairs": 2494, "\u2581\u067e\u0627\u062a\u06d2": 2495, "\u2581\u067e\u0648\u0686\u06be\u0627": 2496, "?\u2019": 2497, "\u2581Way": 2498, "\u25812:": 2499, "\u2581belied": 2500, "\u2581destination": 2501, "\u2581Islam": 2502, "\u2581\u06a9\u06cc\u06ba": 2503, "\u2581future": 2504, "\u2581joy": 2505, "\u2581transgressors": 2506, "\u2581\u062a\u062d\u0642\u06cc\u0642": 2507, "\u2581\u0631\u0633\u062a\u06d2": 2508, "\u2581\u062a\u0639\u062f\u0627\u062f": 2509, "\u2581\u062e\u0627\u0644\u0635": 2510, "\u2581\u0641\u0627\u0626\u062f\u06d2": 2511, "\u0644\u0648\u06af\u0648\u06ba": 2512, "\u2581sufficient": 2513, "\u2581written": 2514, "\u2581similar": 2515, "\u2581\u0633\u0645\u062c\u06be\u0646\u06d2": 2516, "\u2581\u062f\u06cc\u0631": 2517, "\u2581\u0641\u0631\u0645\u0627\u0646": 2518, "\u2581\u0645\u0644\u0646\u06d2": 2519, "\u2581Monotheism": 2520, "\u2581belief": 2521, "\u2581\u0644\u0691\u0627\u0626\u06cc": 2522, "\u2581flesh": 2523, "\u2581ransom": 2524, "\u0628\u0627\u0639": 2525, "\u2581guardian": 2526, "\u2581\u0627\u0686\u0627\u0646\u06a9": 2527, "\u2581\u06c1\u0648\u06af\u0627\u06d4": 2528, "\u2581myself": 2529, "\u2581Great": 2530, "\u2581\u0642\u06cc\u062f": 2531, "\u2581fellow": 2532, "\u2581\u0635\u062f\u06cc": 2533, "\u2581Truly": 2534, "\u2581\u0631\u06c1\u0646\u0645\u0627\u0626\u06cc": 2535, "\u2581\u0686\u0627\u06c1\u0627": 2536, "saying": 2537, "\u2581money": 2538, "\u2581property": 2539, "\u2581\u0627\u062a": 2540, "\u2581resurrection": 2541, "\u2581\u0628\u06be\u0627\u0631\u06cc": 2542, "\u25814:": 2543, "\u2581\u0641\u0636\u06cc\u0644\u062a": 2544, "\u0646\u0633\u06cc": 2545, "\u2581\u0627\u06cc\u0648\u0628": 2546, "\u2581doom": 2547, "\u2581drowned": 2548, "\u2581Woe": 2549, "\u2581decreed": 2550, "\u2581\u0627\u0645\u0631": 2551, "\u2581\u06c1": 2552, "\u06a9\u0633\u06cc": 2553, "\u2581hurt": 2554, "\u2581wishes": 2555, "\u2581\u0642\u0648\u0644": 2556, "\u2581escape": 2557, "\u2581\u0645\u0646\u0632\u0644": 2558, "\u2581House": 2559, "\u2581\u0628\u0633\u062a\u06cc\u0648\u06ba": 2560, "\u2581Jacob": 2561, "\u2581\u0646\u0648\u062c\u0648\u0627\u0646": 2562, "\u2581\u0628\u0627\u063a\u0627\u062a": 2563, "\u2581\u0628\u0627\u0631\u0634": 2564, "\u2581enjoyment": 2565, "\u2581\u0645\u0639\u0628\u0648\u062f\u0648\u06ba": 2566, "\u2581\u06a9\u0627\u0631\u0633\u0627\u0632": 2567, "\u2581\u0641\u0627\u0633\u0642": 2568, "\u2581files": 2569, "\u2581\u0686\u06be\u067e": 2570, "\u2581\u0639\u0645\u062f\u06c1": 2571, "\u2581\u0648\u0639\u062f\u06d2": 2572, "\u2581former": 2573, "\u2581\u062f\u06a9\u06be\u0627\u0626\u06cc": 2574, "Peace": 2575, "\u2581fine": 2576, "\u2581\u0686\u0644\u062a\u0627": 2577, "\u2581angel": 2578, "\u2581remove": 2579, "\u2581died": 2580, "\u2581\u0631\u0648\u06a9\u062a\u06d2": 2581, "\u2581\u0644\u0648\u0679\u0627\u0626\u06d2": 2582, "\u2581ascribe": 2583, "\u2581\u0628\u0691\u06be\u0627": 2584, "\u2581\u0639\u0632\u06cc\u0632": 2585, "\u2581\u0645\u062e\u0644\u0648\u0642": 2586, "\u2581beside": 2587, "\u2581\u0622\u062e\u0631\u06cc": 2588, "\u2581\u067e\u0631\u06c1\u06cc\u0632": 2589, "\u2581\u06af\u0626\u06cc\u06ba": 2590, "\u06c1\u0627\u06ba": 2591, "\u2581\u06a9\u0645\u06cc": 2592, "\u2581\u0645\u0639\u0627\u0641\u06cc": 2593, "\u2581community": 2594, "\u2581everyone": 2595, "\u2581\u0627\u0638\u06c1\u0627\u0631": 2596, "\u2581\u0628\u06cc\u0686": 2597, "\u258118": 2598, "\u2581yours": 2599, "\u2581breasts": 2600, "\u2581shown": 2601, "\u2581\u0637\u0644\u0627\u0642": 2602, "\u2581\u06a9\u0631\u0633\u06a9\u062a\u06d2": 2603, "\u2581retribution": 2604, "\u2581\u062c\u062f\u0627": 2605, "\u2581favours": 2606, "\u2581lived": 2607, "\u2581\u0622\u062c\u0627\u0626\u06cc\u06ba": 2608, "\u2581\u0627\u0644\u0632\u0627\u0645": 2609, "\u2581questions": 2610, "\u25817": 2611, "\u2581\u0628\u0644": 2612, "\u2581\u0686\u06be\u067e\u0627": 2613, "\u2581exalted": 2614, "\u2581\u06af\u0648\u0634\u062a": 2615, "_": 2616, "\u2581\u062f\u06a9\u06be\u0627\u0626\u06d2": 2617, "\u2581\u0636\u0627\u0626\u0639": 2618, "\u2581marry": 2619, "\u2581\u0645\u0627\u0646\u0646\u06d2": 2620, "\u2581Mohammed": 2621, "\u2581assuredly": 2622, "\u2581worshipped": 2623, "\u2581\u0645\u0627\u0631\u06d2": 2624, "\u2581\u0686\u0627\u0644": 2625, "\u2581mention": 2626, "\u2581needy": 2627, "\u2581vain": 2628, "\u2581kinds": 2629, "\u2581observe": 2630, "\u2581\u0645\u06c1\u06cc\u0646\u06d2": 2631, "\u2581\u0631\u0633\u0648\u0627": 2632, "\u2581remained": 2633, "\u2581\u062a\u06cc\u0632": 2634, "\u2581An": 2635, "\u2581tried": 2636, "\u2581\u0635\u0644\u062d": 2637, "\u2581sincere": 2638, "\u2581deed": 2639, "\u2581\u0635\u0644\u06c1": 2640, "\u2581Aaron": 2641, "\u2581aside": 2642, "\u2581fighting": 2643, "\u2581\u0628\u06c1\u0634\u062a": 2644, "\u2581since": 2645, "\u2581\u0646\u062a\u06cc\u062c\u06c1": 2646, "\u062f\u0627\u0631\u06cc": 2647, "\u2581\u0627\u0646\u062f\u06be\u06d2": 2648, "\u2581destruction": 2649, "\u2581\u067e\u06cc\u062f\u0627\u06cc\u0634": 2650, "\u06a9\u0648": 2651, "\u2581\u062a\u0642\u0633\u06cc\u0645": 2652, "\u2581grievous": 2653, "\u2581carry": 2654, "\u2581judgement": 2655, "\u2581\u067e\u062a\u06be\u0631": 2656, "\u2581\u062a\u06cc\u0645\u062a\u06be\u06cc\u0633": 2657, "\u2581\u06a9\u0631\u0644\u0648": 2658, "\u2581male": 2659, "\u2581\u06a9\u0631\u0644\u06cc\u0627": 2660, "\u2581injustice": 2661, "\u2581proofs": 2662, "\u2581\u0627\u062a\u0646\u06cc": 2663, "\u2581\u0639\u0628\u0631\u062a": 2664, "\u2581\u062e\u0631\u0627\u0628\u06cc": 2665, "\u2581security": 2666, "\u2581\u0646\u0634\u0627\u0646": 2667, "\u2581\u0644\u06af": 2668, "\u2581follows": 2669, "\u2581\u062f\u0648\u0644\u062a": 2670, "\u06a9\u0631": 2671, "\u2581\u0646\u06a9\u0627\u0644\u06d2": 2672, "\u2581learned": 2673, "\u2581regard": 2674, "\u2581religious": 2675, "\u2581\u0633\u0641\u0627\u0631\u0634": 2676, "\u2581believes": 2677, "\u2581\u06af\u06be\u0691\u06cc": 2678, "\u2581\u0645\u0646\u0627\u0633\u0628": 2679, "\u2581approach": 2680, "\u062d\u0642": 2681, "\u2581Rather": 2682, "\u2581seeing": 2683, "\u2581\u0646\u0631\u0645": 2684, "\u2581\u0628\u06c1\u062a\u06cc\u0631": 2685, "\u2581\u0645\u06c1\u0645\u0627\u0646": 2686, "\u2581enough": 2687, "\u2581forbid": 2688, "\u2581\u067e\u0631\u062f\u06c1": 2689, "\u2581\u067e\u0648\u0686\u06be\u062a\u06d2": 2690, "\u0646\u0645": 2691, "\u25819": 2692, "\u2581\u0633\u0644\u0627\u0645\u062a\u06cc": 2693, "\u2581\u0628\u06cc\u0645\u0627\u0631": 2694, "\u2581\u06a9\u06be\u0644\u06d2": 2695, "\u2581\u062f\u06d2\u06d4": 2696, "\u2581\u0644\u06af\u062a\u06d2": 2697, "\u2581\u0628\u06cc\u0679\u06be": 2698, "\u2581article": 2699, "\u2581Matthew": 2700, "\u2581\u0645\u0627\u0646\u06af\u062a\u06d2": 2701, "\u2581dwelling": 2702, "\u2581hardship": 2703, "\u2581\u0628\u0646\u0627\u0624": 2704, "\u2581\u0622\u0646\u0627": 2705, "\u2581ancient": 2706, "your": 2707, "\u2581\u0686\u0627\u06c1\u06cc\u0626\u06d2": 2708, "\u2581\u067e\u06cc\u062f\u0627\u0626\u0634": 2709, "\u2581prayed": 2710, "\u062c\u0633": 2711, "\u2581\u0645\u062d\u0645\u062f": 2712, "\u2581\u0631\u0648\u0645\u06cc\u0648\u06ba": 2713, "\u2581Best": 2714, "\u2581plan": 2715, "\u2581everlasting": 2716, "\u2581\u0627\u0637\u0645\u06cc\u0646\u0627\u0646": 2717, "\u2581\u06af\u0631\u0641\u062a": 2718, "\u2581wilt": 2719, "\u2581ease": 2720, "\u2581greatest": 2721, "\u2581humble": 2722, "\u2581period": 2723, "\u2581woe": 2724, "\u2581experience": 2725, "\u2581birds": 2726, "\u2581prophets": 2727, "\u2581\u0627\u0644\u0639\u0627\u0644\u0645\u06cc\u0646": 2728, "\u2581\u06af\u0646\u0627\u0647": 2729, "\u2581believer": 2730, "\u2581turning": 2731, "\u2581Because": 2732, "\u2581perform": 2733, "\u2581break": 2734, "\u2581\u0628\u06be\u0627\u06af": 2735, "\u25811:": 2736, "\u2581sinful": 2737, "\u2581\u062f\u0631\u062f": 2738, "\u2581advice": 2739, "\u2581entered": 2740, "\u2581Right": 2741, "\u2581\u0645\u0644\u06cc": 2742, "\u2581Whom": 2743, "\u2581disgrace": 2744, "\u2581\u062e\u0648\u0627\u06c1\u0634\u0627\u062a": 2745, "\u2581mean": 2746, "\u2581\u062c\u0633\u0645": 2747, "\u2581\u062e\u0648\u0628\u06cc": 2748, "\u2581\u0627\u0641\u0631\u0627\u062f": 2749, "\u2581merciful": 2750, "\u2581thousand": 2751, "\u2581wage": 2752, "\u2581weak": 2753, "\u25815:": 2754, "\u2581deaf": 2755, "\u2581record": 2756, "\u2581\u062a\u0642\u0648\u06cc": 2757, "\u2581twain": 2758, "\u2581\u0627\u0634\u062e\u0627\u0635": 2759, "\u2581\u062f\u0631\u062d\u0642\u06cc\u0642\u062a": 2760, "\u2581\u06c1\u062c\u0631\u062a": 2761, "\u2581bones": 2762, "\u2581relationship": 2763, "\u2581hour": 2764, "\u2581Job": 2765, "\u2581stars": 2766, "\u2581\u0641\u062a\u0646\u06c1": 2767, "Did": 2768, "\u2581lay": 2769, "\u0622\u067e": 2770, "\u2581century": 2771, "\u2581don": 2772, "\u2581\u0627\u0646\u0633\u0627\u0646\u06cc": 2773, "\u2581\u0648\u0627\u0642\u0639\u06c1": 2774, "\u2581\u0628\u062a\u0627\u0624": 2775, "\u2581\u067e\u06c1\u0646\u0686\u062a\u06cc": 2776, "\u2581\u0688\u0627\u0644\u06cc\u06ba": 2777, "\u2581head": 2778, "\u2581although": 2779, "\u2581powerful": 2780, "mighty": 2781, "\u2581\u062e\u0627\u0644\u0642": 2782, "Then": 2783, "\u2581possible": 2784, "\u2581\u0646\u0626\u06d2": 2785, "\u2581\u067e\u0691\u06be\u0646\u06d2": 2786, "\u2581personal": 2787, "\u2581\u0633\u06cc\u0646": 2788, "\u2581\u0645\u0642\u0627\u0628\u0644\u06d2": 2789, "\u2581bow": 2790, "\u2581mischief": 2791, "\u06cc\u0648\u06ba": 2792, "\u2581point": 2793, "\u2581Only": 2794, "\u2581\u062a\u06be\u0648\u0691\u06d2": 2795, "\u2581\u0646\u06a9\u0627\u0644\u0627": 2796, "\u2581\u0628\u0627": 2797, "\u2581\u0633\u0631\u067e\u0631\u0633\u062a": 2798, "\u2581\u067e\u0691\u06cc": 2799, "\u2581decision": 2800, "\u2581rejoice": 2801, "\u2581early": 2802, "\u2581\u0634\u0631\u06cc\u0639\u062a": 2803, "\u2581shows": 2804, "\u2581\u0645\u06a9\u0627\u0634\u0641\u06c1": 2805, "\u2581lot": 2806, "\u2581running": 2807, "\u2581teaching": 2808, "\u2581Behold": 2809, "\u2581\u06a9\u062a\u0646\u06d2": 2810, "\u2581Every": 2811, "\u2581knowing": 2812, "\u2581limits": 2813, "\u2581relatives": 2814, "\u2581animals": 2815, "\u2581mothers": 2816, "\u2581\u067e\u06c1\u0646\u0686\u06cc": 2817, "\u2581\u0628\u062f\u062a\u0631\u06cc\u0646": 2818, "\u2581\u0631\u0636\u0627": 2819, "\u2581\u06f2\u06f6": 2820, "\u2581\u062f\u0627\u0626\u06cc\u06ba": 2821, "\u2581\u0648\u0627\u0644\u062f": 2822, "\u0648\u062a": 2823, "\u2581Beneficent": 2824, "\u2581difficult": 2825, "\u2581forgiving": 2826, "\u2581protector": 2827, "\u2581\u0627\u0646\u0639\u0627\u0645": 2828, "l": 2829, "\u2581sacred": 2830, "\u25aa": 2831, "\u2581\u062f\u0633": 2832, "\u2581Thy": 2833, "\u2581bestow": 2834, "\u2581\u0628\u0646\u0646\u06d2": 2835, "\u2581\u0645\u0648\u0691": 2836, "\u2581subjected": 2837, "Be": 2838, "\u2581doth": 2839, "\u2581disobey": 2840, "\u2581wherever": 2841, "\u2581\u0686\u06be\u067e\u0627\u062a\u06d2": 2842, "\u0632\u0645\u06cc\u0646": 2843, "\u2581choose": 2844, "\u2581Message": 2845, "\u2581Go": 2846, "\u2581allow": 2847, "\u2581\u0631\u0627\u06c1\u0646\u0645\u0627\u0626\u06cc": 2848, "\u2581\u0646\u0627\u06a9": 2849, "\u2581glorify": 2850, "\u2581\u0628\u062e\u0634\u06d2": 2851, "\u25816:": 2852, "\u2581Isaac": 2853, "\u2581\u06c1\u0679\u0627": 2854, "\u2581bondmen": 2855, "\u0627\u0633\u06cc": 2856, "Lord": 2857, "\u2581\u0635\u0648\u0631\u062a\u062d\u0627\u0644": 2858, "\u2581determined": 2859, "\u2581\u0622\u0646\u06a9\u06be": 2860, "\u2581\u0648\u0639\u062f\u0647": 2861, "\u2581Israelites": 2862, "\u2581unaware": 2863, "\u2581\u0627\u0646\u062f\u0627\u0632": 2864, "\u2581\u0627\u0630\u06cc\u062a": 2865, "\u2581\u0646\u0638\u0627\u0645": 2866, "\u062a\u0631": 2867, "\u2581Name": 2868, "\u2581clouds": 2869, "\u2581\u0628\u0648\u0644": 2870, "\u258119": 2871, "\u2581benefits": 2872, "\u2581move": 2873, "\u2581seem": 2874, "\u2581sought": 2875, "\u2581\u0627\u0644\u0641": 2876, "\u2581fail": 2877, "\u2581obedient": 2878, "\u2581\u0641\u0631\u0645\u0627\u0646\u0628\u0631\u062f\u0627\u0631\u06cc": 2879, "\u062e\u0648\u062f": 2880, "\u2581successful": 2881, "\u2581\u0642\u0628\u0631": 2882, "\u2581Ask": 2883, "\u2581Give": 2884, "\u2581ships": 2885, "\u2581\u0644\u0648\u0642\u0627": 2886, "\u2581\u06a9\u0631\u0644\u06cc\u06ba": 2887, "\u2581orphans": 2888, "is": 2889, "\u2581Son": 2890, "\u2581perfect": 2891, "\u2581\u0628\u0686\u0627\u0646\u06d2": 2892, "\u2581whenever": 2893, "\u2581\u0645\u062c\u0631\u0645\u0648\u06ba": 2894, "\u06a9\u062a\u0627\u0628": 2895, "\u2581committed": 2896, "!\u201d": 2897, "\u0627\u06af\u0631": 2898, "\u2581calls": 2899, "\u2581felt": 2900, "\u2581\u0644\u06af\u0627\u0626\u06d2": 2901, "\u2581\u0646\u06cc\u0632": 2902, "\u2581earlier": 2903, "\u2581\u0631\u062f": 2904, "\u2581sister": 2905, "\u2581trees": 2906, "\u2581Whatever": 2907, "\u2581\u06a9\u0627\u0645\u0644": 2908, "\u2581Life": 2909, "\u2581places": 2910, "\u2581\u06a9\u06be\u0627\u0626\u06cc\u06ba": 2911, "\u2581\u06cc\u0627\u0641\u062a\u06c1": 2912, "\u2581acts": 2913, "\u2581attention": 2914, "\u2581real": 2915, "\u2581\u0622\u0633\u0645\u0627\u0646\u06cc": 2916, "\u2581companion": 2917, "\u2581evidences": 2918, "\u2581\u06a9\u0631\u062f\u06cc\u062a\u0627": 2919, "\u2581distress": 2920, "\u2581\u0645\u0639\u0644\u0648\u0645\u0627\u062a": 2921, "this": 2922, "\u2581\u062f\u06a9\u06be\u0627\u062a\u0627": 2923, "\u2581names": 2924, "\u2581Almighty": 2925, "\u2581\u0686\u06be": 2926, "\u2581\u0645\u0639\u0627\u0645\u0644\u0627\u062a": 2927, "\u2581Well": 2928, "\u2581gift": 2929, "\u2581\u06a9\u0627\u0626\u0646\u0627\u062a": 2930, "\u2581befall": 2931, "\u2581liar": 2932, "\u2581deal": 2933, "\u2581touched": 2934, "\u2581\u0628\u06c1\u06c1": 2935, "\u2581\u0686\u0691\u06be": 2936, "they": 2937, "\u0646\u0627\u06c1": 2938, "\u2581ten": 2939, "\u2581Law": 2940, "\u2581becomes": 2941, "\u2581questioned": 2942, "\u2581Ha": 2943, "\u2581New": 2944, "\u2581\u06af\u0641\u062a\u06af\u0648": 2945, "\u2581\u0622\u06af\u06cc\u0627": 2946, "\u2581\u0628\u067e\u062a\u0633\u0645\u06c1": 2947, "\u2581\u062d\u0628\u06cc\u0628": 2948, "\u2581hosts": 2949, "\u2581\u0633\u0646\u0648": 2950, "\u2581\u06c1\u0627\u0626\u06d2": 2951, "\u2581\u062f\u06be\u06cc\u0627\u0646": 2952, "\u2581\u062c\u0627\u06c1\u0644": 2953, "\u2581thankful": 2954, "\u2581\u062f\u0648\u06d4": 2955, "\u2581helpers": 2956, "\u2581\u0686": 2957, "\u2581weight": 2958, "\u2581evildoers": 2959, "\u2581ignorant": 2960, "\u2581direction": 2961, "\u2581\u0648\u0633\u0639\u062a": 2962, "\u2581heavy": 2963, "\u2581\u062f\u0648\u0691": 2964, "\u2581\u0645\u0644\u0627\u0645\u062a": 2965, "\u2581rich": 2966, "\u2581\u062a\u0633\u0644\u06cc": 2967, "\u2581\u067e\u06a9\u0627\u0631\u0648": 2968, "\u2581fell": 2969, "\u2581eye": 2970, "\u2581held": 2971, "\u2581\u0639\u0628\u0631\u0627\u0646\u06cc\u0648\u06ba": 2972, "\u2581groups": 2973, "\u2581inhabitants": 2974, "\u2581\u062a\u06be\u06cc\u06d4": 2975, "\u2581\u0645\u0642\u0631\u0631\u06c1": 2976, "\u2581D": 2977, "\u2581\u0646\u06a9\u0644\u06d2": 2978, "\u2581looking": 2979, "!\u2019": 2980, "\u2581\u067e\u06be\u0631\u062a\u06d2": 2981, "\u2581slay": 2982, "\u2581Like": 2983, "\u2581got": 2984, "\u2581\u062f\u06cc\u0648\u0627\u0631": 2985, "\u0634\u0627\u0631\u06c1": 2986, "\u2581\u0645\u0639\u0627\u0645\u0644\u06d2": 2987, "\u2581\u0631\u0648\u06a9\u0627": 2988, "\u2581\u0633\u06cc\u06a9\u06be": 2989, "\u2581\u0645\u062d\u0645\u062f\u0610": 2990, "\u2581\u0645\u0634\u0631\u06a9\u06cc\u0646": 2991, "\u2581\u0622\u06c1\u0633\u062a\u06c1": 2992, "\u2581\u062c\u06c1\u0627\u0646\u0648\u06ba": 2993, "\u2581comfort": 2994, "\u2581inherit": 2995, "\u2581Hearing": 2996, "\u2581\u0644\u0641\u0638": 2997, "\u2581favors": 2998, "\u2581stayed": 2999, "\u2581\u062f\u0627\u0631\u0648\u06ba": 3000, "\u2581\u0646\u0641\u0631\u062a": 3001, "\u2581gold": 3002, "\u2581\u062d\u062c": 3003, "\u2581happiness": 3004, "\u2581tongue": 3005, "\u2581\u0679\u06be\u06a9\u0627\u0646": 3006, "\u2581fears": 3007, "\u2581\u0645\u0627\u06cc\u0648\u0633": 3008, "ll": 3009, "\u2581met": 3010, "\u2581decided": 3011, "\u2581lesson": 3012, "\u2581\u0633\u0646\u06cc\u06ba": 3013, "\u2581endure": 3014, "\u2581further": 3015, "\u2581throw": 3016, "\u2581\u067e\u0648\u0686\u06be": 3017, "\u2581idolaters": 3018, "\u0629": 3019, "\u2581opened": 3020, "\u2581large": 3021, "\u2581\u0631\u06cc\u0632\u06c1": 3022, "\u0645\u0646\u062a\u0638\u0631": 3023, "\u2581Ye": 3024, "\u2581watch": 3025, "\u2581\u0645\u0627\u0646\u0627": 3026, "\u2581\u06a9\u06be\u062c\u0648\u0631": 3027, "\u2581anointed": 3028, "\u2581\u0639\u0644\u0627\u0642\u06d2": 3029, "\u2581upright": 3030, "\u2581\u06c1\u0679": 3031, "\u2581\u0628\u0627\u0626\u06cc\u06ba": 3032, "Have": 3033, "\u2581\u062a\u0648\u0642\u0639": 3034, "\u2581play": 3035, "\u2581\u062f\u0627\u0646\u0627": 3036, "\u2581B": 3037, "\u2581cover": 3038, "\u2581\u0645\u0627\u0646\u06cc\u06ba": 3039, "\u2581seed": 3040, "\u2581\u062a\u0631\u0642\u06cc": 3041, "\u2581\u067e\u06c1\u0644\u0648": 3042, "\u2581expect": 3043, "\u2581system": 3044, "\u2581\u062a\u0631\u0628\u06cc\u062a": 3045, "\u2581\u063a\u0631\u0642": 3046, "\u2581\u0628\u0646\u06d2": 3047, "C": 3048, "\u2581firmly": 3049, "\u2581promises": 3050, "\u2581\u067e\u06be\u0679": 3051, "\u2581feed": 3052, "\u2581\u0645\u0635\u0631": 3053, "\u2581\u062a\u0644\u0627": 3054, "\u2581\u0627\u0646\u062c\u06cc\u0644": 3055, "\u2581thinking": 3056, "\u2581proper": 3057, "\u2581\u0632\u0645\u0627\u0646\u06c1": 3058, "\u2581\u0628\u0691\u0627\u0626\u06cc": 3059, "\u2581\u062c\u0648\u0691\u06d2": 3060, "\u2581clean": 3061, "\u2581\u0644\u0628\u0627\u0633": 3062, "\u2581communications": 3063, "\u2581date": 3064, "\u2581associates": 3065, "\u2581\u0633\u06a9\u06be\u0627\u06cc\u0627": 3066, "es": 3067, "\u2581ground": 3068, "\u2581\u067e\u0627\u06a9\u06cc\u0632": 3069, "\u2581\u062a\u0628\u062f\u06cc\u0644\u06cc": 3070, "\u2581\u0641\u0648\u0644\u0688\u0631": 3071, "\u2581\u0632\u06cc\u0646\u062a": 3072, "*": 3073, "\u2581enjoin": 3074, "\u2581leaders": 3075, "\u2581\u0646\u0627\u0634\u06a9\u0631\u06cc": 3076, "\u2581needs": 3077, "\u2581\u062f\u0631\u062c\u06c1": 3078, "\u2581position": 3079, "\u2581spent": 3080, "\u2581cursed": 3081, "\u2581elders": 3082, "\u2581\u0627\u0628\u0644\u06cc\u0633": 3083, "\u2581Has": 3084, "Are": 3085, "\u2581leaves": 3086, "\u2581second": 3087, "\u2581sheep": 3088, "\u2581\u0631\u062e": 3089, "\u0646\u06be": 3090, "\u2581\u062c\u06be\u06af\u0691": 3091, "\u2581\u062a\u0627\u0631\u06cc\u06a9\u06cc": 3092, "All": 3093, "\u2581sound": 3094, "\u2581utter": 3095, "\u2581wherewith": 3096, "\u2581\u062f\u0631\u062c\u06d2": 3097, "\u0628\u06c1": 3098, "\u2581\u06af\u0631\u062f": 3099, "\u2581\u062c\u06be\u06af\u0691\u062a": 3100, "Is": 3101, "\u2581\u0641\u0631\u0645\u0627\u0626\u06cc\u06ba": 3102, "\u2581\u0645\u0631\u0646\u06d2": 3103, "so": 3104, "\u2581cities": 3105, "\u2581failed": 3106, "\u2581lessons": 3107, "\u2581\u06a9\u0631\u062f\u0648": 3108, "\u2581\u06c1\u0646\u0633\u06cc": 3109, "\u2581\u0627\u0646\u062f\u06cc\u0634\u06c1": 3110, "\u2581\u062e\u06cc\u0631\u0627\u062a": 3111, "\u062c\u0632": 3112, "\u2581\u0641\u0631\u0634\u062a\u06c1": 3113, "\u2581patiently": 3114, "\u2581\u067e\u0627\u06a9\u06cc": 3115, "\u062a\u0645\u06c1\u0627\u0631\u06d2": 3116, "\u2581\u0627\u0633\u0644\u0626\u06d2": 3117, "\u2581\u06f3\u06f0": 3118, "\u2581itself": 3119, "\u2581\u062f\u06a9\u06be\u0627\u06cc\u0627": 3120, "\u2581\u0631\u0648\u0634": 3121, "\u2581\u062a\u0633\u0644\u06cc\u0645": 3122, "\u2581Thee": 3123, "\u2581\u0628\u06be\u0631\u0648\u0633\u0627": 3124, "\u2581\u063a\u0644\u0628\u06c1": 3125, "\u2581\u06cc\u06a9": 3126, "\u2581jinns": 3127, "\u2581\u0628\u0627\u0644": 3128, "\u2581\u062c\u06be\u0648\u0679\u06cc": 3129, "\u2581\u0645\u062b\u0627\u0644\u06cc\u06ba": 3130, "\u2581virtuous": 3131, "\u0648\u062d": 3132, "\u2581success": 3133, "\u2581write": 3134, "\u2581\u0679\u06be\u06c1\u0631\u0627": 3135, "\u2581less": 3136, "\u2581sick": 3137, "\u2581month": 3138, "\u2581ruin": 3139, "\u2581\u0627\u0646\u062f\u0627\u0632\u06c1": 3140, "\u2581\u06a9\u0631\u062f\u0627\u0631": 3141, "\u2581\u06a9\u0645\u0627\u0626\u06cc": 3142, "\u2581vision": 3143, "\u2581\u062d\u0648\u0627\u0644\u06c1": 3144, "\u2581various": 3145, "\u2581\u062e\u0628\u0631\u06cc\u06ba": 3146, "\u2581\u062f\u0633\u062a\u0648\u0631": 3147, "\u2581problems": 3148, "\u2581\u062e\u06cc\u0627\u0646\u062a": 3149, "\u2581\u06f2\u06f9": 3150, "\u2581\u067e\u0691\u06be\u06cc": 3151, "less": 3152, "\u2581household": 3153, "\u2581fought": 3154, "\u0627\u0641\u0632\u0627\u0626\u06cc": 3155, "\u2581\u062d\u0635\u06d2": 3156, "\u2581chose": 3157, "\u2581\u0631\u0648\u06af\u0631\u062f\u0627\u0646": 3158, "\u2581Jerusalem": 3159, "\u2581S": 3160, "\u2581Witness": 3161, "\u2581anger": 3162, "\u2581\u0639": 3163, "\u2581\u067e\u0691\u06be\u0627": 3164, "\u2581\u06cc\u06c1\u0648\u062f\u06cc\u0648\u06ba": 3165, "\u2581ready": 3166, "\u2581\u0627\u0633\u06a9\u06cc": 3167, "\u2581\u0628\u062d\u062b": 3168, "\u2581\u062a\u062e\u0644\u06cc\u0642": 3169, "\u2581\u063a\u0631\u0636": 3170, "\u2581\u0641\u0679": 3171, "\u2581piety": 3172, "\u2581\u0622\u06cc\u062a": 3173, "\u2581suddenly": 3174, "\u258117": 3175, "\u2581perceive": 3176, "\u2581\u0630\u0627\u062a\u06cc": 3177, "\u2581divine": 3178, "\u2581file": 3179, "\u2581\u067e\u0686\u06be\u0644\u06d2": 3180, "\u0631\u0627": 3181, "\u2581\u0628\u0631\u062f\u0627\u0634\u062a": 3182, "\u2581\u201d?": 3183, "\u2581Peace": 3184, "\u2581\u062d\u0631\u06a9\u062a": 3185, "\u2581maintain": 3186, "\u2581Among": 3187, "\u2581\u067e\u0691\u06cc\u06ba": 3188, "\u2581Torah": 3189, "\u2581overcome": 3190, "\u2581\u06f2\u06f7": 3191, "\u2581appear": 3192, "\u2581\u0633\u0646\u062f": 3193, "\u2581\u06a9\u0627\u0646\u0648\u06ba": 3194, "\u2581dwellers": 3195, "\u2581married": 3196, "\u2581meetings": 3197, "\u2581\u062c\u0627\u0624\u06ba": 3198, "\u2581\u062c\u0691": 3199, "\u2581\u0645\u062d\u0646\u062a": 3200, "ve": 3201, "\u2581Could": 3202, "\u2581\u0634\u062f\u06cc\u062f": 3203, "\u2581calling": 3204, "\u2581members": 3205, "\u2581\u062c\u062a\u0646\u0627": 3206, "\u2581spoke": 3207, "\u2581examples": 3208, "\u2581needed": 3209, "\u2581protection": 3210, "\u2581\u0627\u0646\u062f\u06be\u0627": 3211, "\u2581Were": 3212, "\u2581belie": 3213, "\u2581information": 3214, "\u2581\u0627\u062c\u0644\u0627\u0633": 3215, "\u2581\u0628\u06cc\u0632\u0627\u0631": 3216, "\u2581\u0645\u0630\u06c1\u0628\u06cc": 3217, "\u2581\u0645\u0634\u0631\u0642": 3218, ")]": 3219, "\u062f": 3220, "\u2581birth": 3221, "\u2581produced": 3222, "\u2581\u0622\u0628\u0627\u062f": 3223, "\u2581\u0634\u06c1\u0627\u062f\u062a": 3224, "\u2581\u0641\u0627\u0626\u0644": 3225, "\u2581\u0641\u0631\u06cc\u0627\u062f": 3226, "\u2581\u067e\u06c1\u0646\u0686\u0646\u06d2": 3227, "\u2581\u0628\u0627\u06c1\u0645": 3228, "\u0627\u0633\u06d2": 3229, "\u2581six": 3230, "\u2581\u06f3\u06f1": 3231, "\u0646\u06a9\u06cc": 3232, "\u2581Oneness": 3233, "\u2581\u0645\u0627\u0646\u06af\u062a\u0627": 3234, "\u2581\u062a\u0627": 3235, "\u2581\u0633\u0645\u062c\u06be\u0627": 3236, "\u2581\u067e\u0648\u0686\u06be\u0648": 3237, "\u2581\u0627\u0679\u06be\u0627\u06cc\u0627": 3238, "\u2581\u06cc\u0648\u0646\u06c1\u06cc": 3239, "\u0631\u0633\u0648\u0644": 3240, "\u2581\u0628\u0627\u062f\u0644": 3241, "\u2581\u0628\u06cc\u0679\u06cc\u0627\u06ba": 3242, "\u2581\u0631\u062d\u06cc\u0645": 3243, "\u2581\u06a9\u0631\u0644\u06d2": 3244, "\u2581alive": 3245, "\u2581purify": 3246, "\u2581\u0645\u0644\u062a\u0627": 3247, "\u2581therewith": 3248, "\u2581\u0648\u0635\u06cc\u062a": 3249, "\u2581While": 3250, "\u2581oath": 3251, "\u2581voice": 3252, "\u2581likely": 3253, "\u2581warnings": 3254, "\u2581form": 3255, "\u2581goes": 3256, "\u2581pardon": 3257, "\u2581\u0628\u062a\u0648\u06ba": 3258, "\u2581\u0645\u06cc\u0648\u06d2": 3259, "!'": 3260, "\u2581Isaiah": 3261, "\u2581\u0628\u0627\u0644\u0627": 3262, "\u2581\u0628\u0646\u06cc\u0627\u062f": 3263, "\u2581\u0639\u0627\u0644\u0645\u06cc": 3264, "\u2581testify": 3265, "\u2581\u062e\u0637": 3266, "\u2581\u0633\u0644\u0648\u06a9": 3267, "\u2581\u0645\u063a\u0631\u0628": 3268, "\u2581\u0628\u06c1\u0631\u062d\u0627\u0644": 3269, "\u2581claim": 3270, "\u2581explain": 3271, "\u2581Able": 3272, "Prophet": 3273, "against": 3274, "\u0644\u0679\u06d2": 3275, "\u2581\u0628\u0631\u067e\u0627": 3276, "\u2581goodness": 3277, "\u2581\u0627\u062a\u0635\u0627\u0644": 3278, "\u2581\u0637\u06d2": 3279, "/": 3280, "\u2581resurrected": 3281, "\u2581lying": 3282, "\u2581covered": 3283, "\u2581\u0628\u06cc\u0648\u06cc\u0627\u06ba": 3284, "\u2581boiling": 3285, "\u2581working": 3286, "\u2581\u0627\u0639\u062a\u0628\u0627\u0631": 3287, "\u2581\u0633\u0627\u062a\u06be\u06cc\u0648\u06ba": 3288, "\u2581attain": 3289, "\u2581Prophets": 3290, "\u2581righteously": 3291, "\u0649": 3292, "\u2581profit": 3293, "\u2581\u0644\u06af\u0627\u062a\u06d2": 3294, "\u2581awaits": 3295, "\u2581likeness": 3296, "\u2581\u0644\u0691\u06a9\u06d2": 3297, "\u2581cometh": 3298, "\u2581connection": 3299, "\u2581\u062f\u06be\u0648\u06a9\u06c1": 3300, "\u2581\u0642\u0628\u0636": 3301, "\u2581forefathers": 3302, "\u2581\u0633\u0646\u0627\u0626\u06cc": 3303, "\u2581heads": 3304, "\u2581\u06af\u0632\u0631\u06d2": 3305, "\u2581\u0627\u0628\u0631\u0627\u06c1\u06cc\u0645\u0611": 3306, "\u0626\u06cc": 3307, "\u0627\u0646\u06c1\u06cc\u06ba": 3308, "\u2581Mosque": 3309, "\u2581\u0633\u0645\u062c\u06be\u0648": 3310, "\u2581\u06af\u0646\u062a\u06cc": 3311, "\u2581Shall": 3312, "\u2581\u0688\u0631\u0627": 3313, "h": 3314, "\u2581laid": 3315, "\u2581\u0645\u0639\u06cc\u0646": 3316, "\u2581High": 3317, "\u2581grief": 3318, "\u2581females": 3319, "un": 3320, "\u2581parts": 3321, "\u2581stones": 3322, "\u2581\u0628\u0646\u062f\u06c1": 3323, "\u2581\u067e\u0691\u062a\u0627": 3324, "\u2581Evil": 3325, "\u2581situation": 3326, "\u2581\u0627\u06af\u0644": 3327, "\u2581\u0645\u0644\u0627\u0626\u06a9\u06c1": 3328, "\u2581carried": 3329, "\u2581force": 3330, "\u2581lose": 3331, "\u2581white": 3332, "His": 3333, "\u2581persons": 3334, "\u2581\u0628\u06cc": 3335, "\u2581\u063a\u0635\u06c1": 3336, "\u2581World": 3337, "\u2581\u0628\u062f\u06a9\u0627\u0631\u06cc": 3338, "\u2581\u0645\u062a\u0648\u062c\u06c1": 3339, "\u2581commands": 3340, "There": 3341, "\u2581prevent": 3342, "\u2581dominion": 3343, "\u2581\u0644\u0627\u062a\u0627": 3344, "\u2581\u0645\u0646": 3345, "In": 3346, "\u0639\u0645\u0644": 3347, "\u2581\u0644\u0648\u0679\u0627": 3348, "\u2581hundred": 3349, "\u2581Consider": 3350, "\u2581obedience": 3351, "\u2581\u0627\u0646\u062a\u062e\u0627\u0628": 3352, "who": 3353, "\u2581invent": 3354, "\u2581sides": 3355, "\u2581dawn": 3356, "\u2581increased": 3357, "\u2581strike": 3358, "\u2581\u06a9\u0634\u0627\u062f\u06c1": 3359, "\u2581\u0628\u062e\u0644": 3360, "\u2581\u0646\u06a9\u0627\u0644\u06cc\u06ba": 3361, "\u0627\u0627\u0644\u0644\u0647": 3362, "\u2581\u06cc\u062a\u06cc\u0645": 3363, "Shall": 3364, "\u06a9\u0648\u0626\u06cc": 3365, "\u2581Sacred": 3366, "\u2581Today": 3367, "\u2581\u0645\u0633\u062a\u0642\u0628\u0644": 3368, "\u2581ancients": 3369, "\u2581descendants": 3370, "\u2581filled": 3371, "\u2581\u0627\u06c1\u0645\u06cc\u062a": 3372, "\u2581\u062c\u0627\u0624\u06d4": 3373, "\u2581\u0645\u06c1\u06cc\u0627": 3374, "\u2581\u0686\u0644\u06cc": 3375, "\u2581respond": 3376, "ic": 3377, "\u2581\u0631\u0646\u062c": 3378, "\u2581Messiah": 3379, "\u2581Although": 3380, "\u2581rightly": 3381, "\u2581\u0688\u0627\u0644\u0648": 3382, "\u2581serving": 3383, "\u062f\u0646\u06cc\u0648\u06cc": 3384, "\u2581short": 3385, "\u2581\u0627\u0633\u062d\u0627\u0642": 3386, "\u2581\u062f\u0631\u062e\u0648\u0627\u0633\u062a": 3387, "\u2581\u0645\u0646\u062f": 3388, "\u2581Proverbs": 3389, "\u2581prison": 3390, "\u2581treat": 3391, "\u2581\u062e\u0648\u0634\u0646\u0648\u062f\u06cc": 3392, "\u2581\u062a\u0646\u06af\u06cc": 3393, "\u2581\u0645\u0633\u0644\u0645\u0627\u0646\u0648": 3394, "\u2581asking": 3395, "\u2581\u06af\u0644": 3396, "\u2581struck": 3397, "\u2581\u0627\u0635\u0648\u0644": 3398, "\u2581sake": 3399, "\u2581\u0646\u0627\u067e\u0633\u0646\u062f": 3400, "\u2581disease": 3401, "\u2581heavenly": 3402, "\u2581public": 3403, "\u2581run": 3404, "\u2581\u0627\u0633\u0631\u0627\u0626\u06cc\u0644\u06cc": 3405, "How": 3406, "\u2581almost": 3407, "\u2581\u0622\u062e\u0631\u06a9\u0627\u0631": 3408, "\u2581\u0628\u062f\u06cc": 3409, "\u2581battle": 3410, "\u2581offering": 3411, "\u2581recognize": 3412, "\u25811,": 3413, "\u2581Revelation": 3414, "\u2581\u0622\u0631\u0627\u0633\u062a\u06c1": 3415, "\u2581\u062e\u0633\u0627\u0631\u06c1": 3416, "\u2581\u062f\u06cc\u062c\u06cc\u0626\u06d2": 3417, "\u2581\u0631\u0633\u062a\u06c1": 3418, "\u2581\u0634\u0639\u06cc\u0628": 3419, "\u2581\u067e\u06c1\u0644\u0627": 3420, "\u2581\u0630\u0628\u062d": 3421, "\u2581\u0642\u0631\u0636": 3422, "\u2581\u0628\u06c1": 3423, "\u2581Ayat": 3424, "\u2581\u063a\u0627\u0626\u0628": 3425, "\u2581Gracious": 3426, "\u2581worthy": 3427, "\u2581\u0634\u06c1\u0631\u0648\u06ba": 3428, "\u2581\u0642\u06cc\u0627\u0645": 3429, "\u2581N": 3430, "Bring": 3431, "\u2581prescribed": 3432, "\u2581\u0628\u062c\u0627": 3433, "\u2581join": 3434, "\u2581add": 3435, "\u2581differ": 3436, "\u2581affliction": 3437, "\u2581earn": 3438, "\u2581proclaim": 3439, "\u2581\u0634\u06a9\u0644": 3440, "\u2581\u067e\u06be\u06cc\u0644\u0627": 3441, "\u2581\u062a\u0639\u062c\u0628": 3442, "\u2581\u062a\u0648\u0631\u0627\u062a": 3443, "\u2581\u0645\u062e\u0644\u0648\u0642\u0627\u062a": 3444, "\u2581\u0645\u0644\u062a\u06cc": 3445, "\u2581Where": 3446, "\u2581slain": 3447, "\u2581\u0628\u06c1\u06a9\u0627": 3448, "\u0642": 3449, "\u2581Spirit": 3450, "\u2581infidels": 3451, "\u2581settled": 3452, "\u2581reading": 3453, "men": 3454, "\u2581company": 3455, "\u2581\u0639\u0631\u0628\u06cc": 3456, "\u2581\u0627\u062a\u0631\u0627": 3457, "\u2581alike": 3458, "\u2581fill": 3459, "\u2581\u0645\u0634\u06a9\u0644\u0627\u062a": 3460, "\u2581\u063a\u0641\u0644\u062a": 3461, "\u2581\u0686\u0631\u0686": 3462, "No": 3463, "\u2581named": 3464, "\u2581prove": 3465, "\u2581\u0646\u06a9\u0644\u0646\u06d2": 3466, "\u2581\u0648\u0627\u0642\u0639\u0627\u062a": 3467, "\u2581changed": 3468, "\u2581\u062f\u0627\u0631\u06cc": 3469, "\u2581\u0645\u0624\u0645\u0646": 3470, "\u2581\u06a9\u0646\u0627\u0631\u06d2": 3471, "\u2581green": 3472, "\u2581parable": 3473, "\u2581winds": 3474, "\u2581\u0639\u062c\u06cc\u0628": 3475, "\u2581\u0686\u067e\u06a9\u06d2": 3476, "\u2581(*": 3477, "\u2581build": 3478, "\u2581\u0627\u0646\u06af\u0648\u0631": 3479, "\u2581wont": 3480, "\u2581\u0637\u0631\u06cc\u0642\u0648\u06ba": 3481, "\u2581country": 3482, "\u2581started": 3483, "\u2581testimony": 3484, "\u2581preach": 3485, "\u0633\u0646\u0627\u062a\u06d2": 3486, "\u2581Whosoever": 3487, "\u2581disobedient": 3488, "\u2581happened": 3489, "\u2581hereafter": 3490, "\u2581\u0627\u0642\u062a\u062f\u0627\u0631": 3491, "\u2581punished": 3492, "\u2581\u0645\u0645\u0633\u0648\u062d": 3493, "\u2581\u062d\u0648\u0627\u0644\u06d2": 3494, "\u2581allowed": 3495, "\u2581abundance": 3496, "\u2581driven": 3497, "\u2581\u0632\u0646\u062f": 3498, "\u2581springs": 3499, "\u2581beautiful": 3500, "\u2581\u0679\u06be\u06c1\u0631": 3501, "\u2581recall": 3502, "\u2581\u06cc\u062a\u06cc\u0645\u0648\u06ba": 3503, "\u2581feared": 3504, "\u2581\u0628\u0691\u06be\u0646\u06d2": 3505, "\u0635\u0644": 3506, "\u0631\u06c1\u06d2": 3507, "\u2581honor": 3508, "\u2581\u067e\u0644\u0679\u0627": 3509, "\u2581Unseen": 3510, "\u2581\u0686\u06be\u0648\u0679\u06d2": 3511, "\u2581riches": 3512, "\u2581task": 3513, "\u2581\u0639\u0648\u0636": 3514, "\u2581\u0686\u0646\u0627\u0646\u0686\u06c1": 3515, "\u2581seize": 3516, "\u2581worst": 3517, "\u2581Judgement": 3518, "\u2581attitude": 3519, "\u2581goodly": 3520, "\u2581\u0628\u0634\u0631": 3521, "\u2581afflicted": 3522, "\u2581private": 3523, "\u2581\u0633\u06a9\u0648\u0644": 3524, "\u2581explained": 3525, "\u2581Each": 3526, "\u2581Moosa": 3527, "\u2581ahead": 3528, "\u2581palm": 3529, "\u2581\u0627\u0642\u0631\u0627\u0631": 3530, "\u2581divided": 3531, "\u2581moved": 3532, "\u2581\u0628\u0632\u0631\u06af\u0648\u06ba": 3533, "\u2581\u0633\u0641\u06cc\u062f": 3534, "\u2581\u062c\u0648\u0634": 3535, "\u2581\u0645\u0627\u0626\u0644": 3536, "\u2581\u0648\u0628\u0627\u0644": 3537, "\u2581removed": 3538, "\u2581\u062d\u0645\u0627\u06cc\u062a": 3539, "\u2581\u0633\u0648\u0646\u06d2": 3540, "\u2581\u06af\u06be\u0627\u0679": 3541, "\u2581Reminder": 3542, "\u2581devotion": 3543, "\u2581half": 3544, "\u2581\u0628\u06be\u06cc\u0691": 3545, "\u2581\u06a9\u0646\u0627\u0631\u06c1": 3546, "\u2581price": 3547, "These": 3548, "\u2581True": 3549, "\u2581\u067e\u0631\u0648\u0631\u0634": 3550, "\u2581Arabic": 3551, "\u2581\u0632\u0646\u062f\u06af\u0627\u0646\u06cc": 3552, "\u2581\u062d\u06cc\u0627\u0626\u06cc": 3553, "\u2581\u0646\u06cc\u0627": 3554, "ers": 3555, "\u2581provides": 3556, "\u2581bounties": 3557, "\u258125": 3558, "Forgiving": 3559, "\u2581unjustly": 3560, "\u2581\u067e\u0648\u0686\u06be\u06cc\u06ba": 3561, "\u2581\u06a9\u0631\u0633\u06a9\u062a\u0627": 3562, "like": 3563, "evil": 3564, "ther": 3565, "\u2581actions": 3566, "\u2581confirming": 3567, "\u2581dwellings": 3568, "\u2581\u062c\u0627\u0631\u06c1\u06cc": 3569, "\u2581Glory": 3570, "\u2581deities": 3571, "\u2581\u0622\u062a\u0634": 3572, "\u2581\u0639\u0644\u064a": 3573, "\u2581Know": 3574, "\u2581fixed": 3575, "\u2581proved": 3576, "\u2581sleep": 3577, "\u2581\u0628\u0631": 3578, "\u2581Mount": 3579, "\u2581None": 3580, "\u258124": 3581, "\u2581born": 3582, "\u2581possessed": 3583, "\u2581refused": 3584, "\u2581\u0642\u0633\u0645\u0648\u06ba": 3585, "\u2581realize": 3586, "\u2581\u0628\u0631\u0639\u06a9\u0633": 3587, "\u2581\u06c1\u0648\u0633\u06a9\u062a\u0627": 3588, "\u2581especially": 3589, "\u2581health": 3590, "\u2581\u0645\u062c\u0628\u0648\u0631": 3591, "espite": 3592, "\u2581\u0633\u0628\u0642": 3593, "\u2581\u0635\u062d\u0627\u0626\u0641": 3594, "\u2581effect": 3595, "To": 3596, "\u2581recorded": 3597, "\u2581\u062a\u062c\u0627\u0631\u062a": 3598, "\u2581honour": 3599, "\u2581low": 3600, "\u2581thoughts": 3601, "\u2581\u0633\u0645\u062c\u06be\u06d2": 3602, "\u2581therefrom": 3603, "\u2581\u0639\u06cc\u0628": 3604, "\u2581\u0645\u062b\u0644": 3605, "\u2581\u0686\u06be\u0648\u0691\u0627": 3606, "\u2581\u0688\u0627\u0644\u062a\u06d2": 3607, "\u2581heedless": 3608, "\u2581\u0631\u0633\u0648\u0627\u0626\u06cc": 3609, "\u2581declare": 3610, "\u2581\u0686\u0644\u062a\u06cc": 3611, "\u2581\u0622\u0633\u0627\u0646\u06cc": 3612, ":)": 3613, "\u2581\u0628\u06be\u06cc\u062c\u062a\u06d2": 3614, "\u2581\u062f\u06cc\u06ba\u06d4": 3615, "\u2581\u06a9\u06c1\u062a\u06cc": 3616, "\u2581\u06c1\u0645\u062a": 3617, "\u2581penalty": 3618, "\u2581\u06a9\u062c": 3619, "\u2581\u067e\u0631\u06cc\u0634\u0627\u0646": 3620, "\u2581families": 3621, "\u2581\u062c\u0644\u0627": 3622, "\u2581\u067e\u0627\u0628\u0646\u062f\u06cc": 3623, "\u2581sit": 3624, "\u2581\u0646\u0635\u06cc\u0628": 3625, "\u2581\u06af\u0631\u0648\u06c1\u0648\u06ba": 3626, "\u2581including": 3627, "\u2581\u0644\u0627\u0632\u0645": 3628, "\u0627\u06cc\u0633\u0627": 3629, "\u2581\u0644\u06a9\u06be\u06cc": 3630, "\u06cc\u0627\u06ba": 3631, "\u2581nearer": 3632, "\u2581\u0628\u0644\u0627\u06cc\u0627": 3633, "\u2581\u062f\u0634\u0645\u0646\u0648\u06ba": 3634, "\u2581baptized": 3635, "\u2581\u0633\u0627\u0631\u0627": 3636, "\u2581V": 3637, "\u2581\u06af\u0631\u0645": 3638, "\u0646\u06a9\u06d2": 3639, "\u2581Fir": 3640, "\u2581condition": 3641, "\u2581joined": 3642, "\u2581enjoined": 3643, "ness": 3644, "\u2581THE": 3645, "\u2581grain": 3646, "\u2581\u063a\u0627\u0631": 3647, "So": 3648, "\u2581pairs": 3649, "\u2581possessions": 3650, "\u2581special": 3651, "\u2581\u0622\u0631\u0632\u0648": 3652, "\u2581\u0646\u06cc\u0648": 3653, "\u2581Worlds": 3654, "\u2581plot": 3655, "\u2581appoint": 3656, "\u0645\u0627\u0644": 3657, "\u0646\u06cc": 3658, "\u2581Since": 3659, "\u2581\u0642\u062f\u06cc\u0645": 3660, "\u2581befalls": 3661, "\u2581wrongdoing": 3662, "\u2581\u062d\u06a9\u0645\u0631\u0627\u0646\u06cc": 3663, "\u2581regular": 3664, "\u2581\u0628\u06be\u0644": 3665, "\u2581beings": 3666, "\u2581\u0628\u06c1\u0631\u06d2": 3667, "\u2581\u063a\u0631\u0648\u0631": 3668, "\u2581aid": 3669, "\u2581noble": 3670, "\u2581\u0686\u06be\u0627": 3671, "\u2581\u0646\u06cc\u06a9\u0648": 3672, "\u2581\u062a\u062c\u0627\u0648\u0632": 3673, "\u2581divorce": 3674, "\u2581\u0628\u062f\u06a9\u0627\u0631": 3675, "\u2581Timothy": 3676, "\u2581midst": 3677, "\u2581wished": 3678, "\u0641": 3679, "\u2581\u0645\u0633\u0627\u0626\u0644": 3680, "Will": 3681, "\u2581unable": 3682, "\u2581\u0637\u0627\u0644\u0628": 3683, "\u2581pride": 3684, "\u2581\u0628\u06be\u06cc\u06d4": 3685, "\u2581Take": 3686, "\u2581devil": 3687, "\u2581\u0628\u0631\u062a\u0631": 3688, "\u2581\u06a9\u067e\u0691\u06d2": 3689, "\u2581rebellious": 3690, "\u2581whoso": 3691, "\u2581built": 3692, "\u2581convey": 3693, "you": 3694, "\u2581\u067e\u0686\u06be\u0644": 3695, "\u2581decide": 3696, "\u2581\u0631\u0627\u0632": 3697, "\u2581perish": 3698, "\u2581stop": 3699, "\u2581\u062c\u0646\u062a\u0648\u06ba": 3700, "\u2581\u067e\u06cc\u0634\u06cc\u0646\u06af\u0648\u0626\u06cc": 3701, "\u2581meaning": 3702, "\u2581states": 3703, "\u2581\u0642\u0635\u0648\u0631": 3704, "\u0628\u06c1\u062a": 3705, "\u258130": 3706, "\u2581\u0642\u06cc\u0645\u062a": 3707, "\u2581issue": 3708, "\u2581Soon": 3709, "\u2581afflict": 3710, "\u2581F": 3711, "\u2581burning": 3712, "fearing": 3713, "vouchsafed": 3714, "\u2581desist": 3715, "\u2581invented": 3716, "\u2581leads": 3717, "\u2581\u0645\u0631\u062f\u06c1": 3718, "\u2581\u0648\u0637\u0646": 3719, "\u2581calf": 3720, "\u2581feelings": 3721, "\u2581abundant": 3722, "\u2581\u062d\u0631": 3723, "\u2581\u062d\u06a9\u06cc\u0645": 3724, "\u2581\u0631\u0648": 3725, "\u2581\u0648\u0633\u06cc\u0639": 3726, "\u2581prosper": 3727, "\u2581\u0686\u06be\u0648\u0691\u06d2": 3728, "\u2581deep": 3729, "\u2581\u0628\u0644\u0627\u0634\u0628\u06c1": 3730, "\u067e\u06c1\u0644\u06d2": 3731, "\u2581mountain": 3732, "\u2581rewarded": 3733, "\u2581silver": 3734, "\u2581\u062a\u0639\u0628\u06cc\u0631": 3735, "\u2581wine": 3736, "\u2581\u0645\u062a\u0627\u062b\u0631": 3737, "Knowing": 3738, "\u2581longer": 3739, "\u2581school": 3740, "\u2581\u062c\u06be\u06a9": 3741, "\u2581\u062d\u0644": 3742, "\u2581\u0639\u062f\u0644": 3743, "Yes": 3744, "\u2581\u0627\u062d\u0627\u0637\u06c1": 3745, "\u2581\u0627\u06cc\u0633": 3746, "\u2581exchange": 3747, "\u2581\u0627\u06cc\u0645\u0627\u0646\u062f\u0627\u0631": 3748, "\u2581\u0634\u0641\u0642\u062a": 3749, "remember": 3750, "\u2581five": 3751, "\u2581intercession": 3752, "\u2581\u0628\u062a\u0627\u0626\u06d2": 3753, "\u2581\u0632\u062f\u06c1": 3754, "\u2581\u067e\u0634\u062a": 3755, "\u2581Gehenna": 3756, "\u2581\u067e\u062e\u062a\u06c1": 3757, "\u2581effort": 3758, "\u2581gates": 3759, "\u2581\u0628\u06cc\u062a": 3760, "\u2581\u062c\u0646\u0648\u06ba": 3761, "\u2581\u062e\u0627\u0646\u06c1": 3762, "\u2581\u0627\u0628\u0631\u06c1\u0627\u0645": 3763, "Go": 3764, "\u2581Straight": 3765, "\u2581exercise": 3766, "\u2581interest": 3767, "\u2581\u063a\u0646\u06cc\u0645\u062a": 3768, "\u2581\u0646\u0627\u067e\u0627\u06a9": 3769, "\u2581\u0646\u0631": 3770, "\u2581\u0686\u06be\u0648\u0679\u06cc": 3771, "proofs": 3772, "\u2581bounds": 3773, "\u2581twice": 3774, "\u2581\u062f\u0628\u0627\u0624": 3775, "\u2581\u06a9\u0631\u06d2\u06d4": 3776, "\u2581\u06af\u0627\u0626\u06d2": 3777, "\u2581folder": 3778, "\u2581safe": 3779, "\u2581\u0646\u0627\u06a9\u0627\u0645": 3780, "\u2581strengthen": 3781, "\u2581\u0631\u0648\u0645": 3782, "\u2581\u0686\u0634\u0645\u06d2": 3783, "\u2581lasting": 3784, "\u2581\u0631\u06c1\u0648\u06ba": 3785, "\u2581\u0645\u06cc\u0644": 3786, "\u2581\u062e\u0648\u0631\u0627\u06a9": 3787, "\u2581\u0644\u0691\u062a\u06d2": 3788, "\u2581\u067e\u06a9\u0691\u0627": 3789, "\u2581humility": 3790, "\u2581\u0622\u0633": 3791, "\u0628\u0627\u0632\u06af\u0634\u062a": 3792, "\u2581\u0631\u0648\u0632\u06c1": 3793, "\u2581May": 3794, "\u2581creates": 3795, "\u2581forgot": 3796, "\u2581using": 3797, "\u2581\u0686\u0644\u0646\u0627": 3798, "\u2581\u06f3\u06f3": 3799, "\u2581reply": 3800, "\u2581towns": 3801, "\u2581\u0645\u0679\u0627": 3802, "\u2581\u0631\u0627\u062a\u0648\u06ba": 3803, "\u2581\u0645\u062e\u0635\u0648\u0635": 3804, "\u2581willing": 3805, "\u2581\u0646\u0648": 3806, "\u2581Clear": 3807, "\u2581Look": 3808, "\u0628\u06d2": 3809, "\u2581\u0628\u06af\u0627\u0691": 3810, "\u2581\u0631\u0648\u06a9\u06d2": 3811, "\u2581\u0646\u06cc\u0679": 3812, "those": 3813, "\u2581third": 3814, "\u2581wide": 3815, "\u2581\u0648\u0636\u0627\u062d\u062a": 3816, "\u2581Compassionate": 3817, "\u2581responsible": 3818, "\u2581un": 3819, "\u2581\u0641\u0648\u062c": 3820, "\u2581despair": 3821, "\u2581ignorance": 3822, "\u2581\u0648\u06cc\u0633\u0627": 3823, "will": 3824, "\u2581Egypt": 3825, "\u2581throne": 3826, "\u2581\u062f\u0644\u0686\u0633\u067e\u06cc": 3827, "\u2581\u06a9\u062b\u0631\u062a": 3828, "\u2581striving": 3829, "\u2581\u067e\u06c1\u0646\u0686\u0627\u0646\u06d2": 3830, "Pharaoh": 3831, "\u2581P": 3832, "\u2581visit": 3833, "\u2581wherefore": 3834, "\u2581\u062d\u0627\u06a9\u0645": 3835, "\u2581common": 3836, "\u2581\u0627\u062c\u0631\u062a": 3837, "\u2581\u0644\u06af\u062a\u06cc": 3838, "\u2581seal": 3839, "\u2581tongues": 3840, "\u2581waste": 3841, "\u2581\u062b\u0628\u0648\u062a": 3842, "\u2581\u062c\u0648\u0691\u0627": 3843, "\u2581reminded": 3844, "\u2581\u062a\u0627\u0631\u06cc\u062e": 3845, "\u06cc\u0627\u062f": 3846, "\u2581speaking": 3847, "\u2581\u0645\u062d\u0644": 3848, "\u2581\u0639\u0646\u0627\u06cc\u062a": 3849, "people": 3850, "\u2581\u0642\u0627\u0646\u0648\u0646": 3851, "\u2581disobeyed": 3852, "\u2581\u0628\u0646\u0648": 3853, "\u2581\u0633\u06a9\u0648\u0646": 3854, "\u2581\u0648\u0631\u06a9": 3855, "\u2581Just": 3856, "\u2581happen": 3857, "\u2581\u0628\u06cc\u0634\u062a\u0631": 3858, "\u2581\u062f\u06a9\u06be\u0627\u0646\u06d2": 3859, "\u0686\u06cc\u062a": 3860, "\u2581\u067e\u06c1\u0644": 3861, "\u2581\u067e\u06cc\u0634\u0648\u0627": 3862, "\u2581chiefs": 3863, "\u2581encounter": 3864, "\u2581hatred": 3865, "Abraham": 3866, "\u0645\u06af\u0631": 3867, "\u2581army": 3868, "\u2581\u06a9\u062a\u0627\u0628\u06cc\u06ba": 3869, "\u2581\u06c1\u0644\u06a9\u0627": 3870, "\u2581Corinthians": 3871, "\u2581threw": 3872, "\u2581blown": 3873, "\u2581i": 3874, "\u2581Believe": 3875, "\u2581Devil": 3876, "\u2581\u0637\u0627\u0642\u062a\u0648\u0631": 3877, "\u2581staff": 3878, "\u2581\u0622\u0641\u062a": 3879, "\u2581\u062f\u0631\u0627\u0632": 3880, "tar": 3881, "\u2581Acts": 3882, "\u2581\u0645\u0633\u062e\u0631": 3883, "\u2581double": 3884, "\u2581submitted": 3885, "\u2581\u0686\u0644\u06cc\u06ba": 3886, "\u2581laws": 3887, "\u2581worshipping": 3888, "\u2581\u0645\u0634\u0648\u0631\u06c1": 3889, "\u062a\u06c1\u0627\u0626\u06cc": 3890, "\u2581alms": 3891, "\u2581transgress": 3892, "\u2581\u0645\u0632\u06d2": 3893, "\u2581deity": 3894, "\u2581\u0628\u0646\u0627\u062a\u0627": 3895, "\u2581\u0628\u0686\u0646\u06d2": 3896, "\u2581\u062d\u0645\u0644\u06c1": 3897, "\u2581\u062e\u0641\u06cc\u06c1": 3898, "\u2581\u0627\u0641\u062a\u0631\u0627": 3899, "\u2581\u062e\u0632\u0627\u0646\u06d2": 3900, "\u2581round": 3901, "\u2581worse": 3902, "\u2581wretched": 3903, "\u2581\u0628\u06c1\u062a\u06cc": 3904, "\u2581accord": 3905, "\u2581bound": 3906, "\u2581\u0627\u0639\u0644\u06cc": 3907, "\u2581\u062c\u0648\u0627\u0646": 3908, "\u2581\u062f\u0648\u0633\u062a\u0648\u06ba": 3909, "\u2581\u0627\u0646\u062a\u0638\u0627\u0645": 3910, "\u2581\u06af\u0631\u0641\u062a\u0627\u0631": 3911, "\u2581spoken": 3912, "\u2581triumph": 3913, "\u2581\u0622\u067e\u06a9\u0648": 3914, "c": 3915, "\u0644\u06a9": 3916, "\u2581Gospel": 3917, "\u2581\u0627\u062a\u0631": 3918, "\u0648\u06c1\u06cc": 3919, "\u0627\u06cc\u0633\u06d2": 3920, "\u2581Romans": 3921, "\u2581\u062f\u0645": 3922, "\u2581Might": 3923, "\u2581nigh": 3924, "\u2581\u0627\u062d\u0633\u0627\u0633": 3925, "\u2581\u0627\u0648\u0646\u0679": 3926, "\u2581\u062a\u0631\u06cc\u0646": 3927, "Your": 3928, "\u2581R": 3929, "\u2581associated": 3930, "\u2581paradise": 3931, "\u2581\u0627\u06a9\u062b\u0631\u06cc\u062a": 3932, "\u2581Shaitan": 3933, "\u2581assigned": 3934, "\u2581extreme": 3935, "\u2581wonder": 3936, "\u2581\u0644\u0691\u06a9\u06cc": 3937, "\u0645\u0646\u062f": 3938, "\u2581Luke": 3939, "\u2581\u062f\u0639\u0648\u06cc": 3940, "\u0679\u06be\u0627": 3941, "\u2581helps": 3942, "\u258122": 3943, "\u2581Everlasting": 3944, "\u2581\u063a\u0645\u06af\u06cc\u0646": 3945, "\u2581footsteps": 3946, "\u2581rise": 3947, "Wise": 3948, "\u2581rely": 3949, "\u2581\u06af\u06be\u0691": 3950, "unto": 3951, "\u2581Should": 3952, "\u2581efforts": 3953, "\u2581Never": 3954, "\u2581\u0645\u0639\u06cc\u0627\u0631": 3955, "\u2581\u0645\u0648\u0627\u0641\u0642": 3956, "\u0628\u062e\u0648\u0628\u06cc": 3957, "\u2581Make": 3958, "\u2581unlawful": 3959, "\u2581\u062e\u062f\u0627\u0626\u06cc": 3960, "\u2581\u062e\u062f\u0627\u0648\u0646\u062f": 3961, "\u2581\u0631\u0647": 3962, "\u2581\u0634\u0628\u06c1": 3963, "\u2581\u0688\u0631\u0627\u062a": 3964, "\u2581Unbelievers": 3965, "\u2581\u062f\u06cc\u06a9\u06be\u06cc": 3966, "\u2581\u06af\u0631\u0627": 3967, "\u2581Guardian": 3968, "\u2581Man": 3969, "\u2581sexual": 3970, "\u0633\u06a9\u0627": 3971, "\u2581devils": 3972, "\u2581\u0628\u06be\u0679\u06a9": 3973, "\u2581\u06a9\u06be\u0627\u062a\u0627": 3974, "\u2581\u06af\u0648": 3975, "\u2581display": 3976, "\u2581interpretation": 3977, "\u2581\u0628\u06be\u06cc\u062c\u062a\u0627": 3978, "\u2581\u062a\u06c1": 3979, "\u2581\u0639\u0638\u0645\u062a": 3980, "\u2581\u0679\u0627\u0644": 3981, "\u2581\u06cc\u0631\u0648\u0634\u0644\u06cc\u0645": 3982, "Verily": 3983, "\u2581sorrow": 3984, "\u2581\u0631\u0648\u06a9\u0646\u06d2": 3985, "\u2581\u0631\u0641\u06cc\u0642": 3986, "\u2581\u0631\u0648\u0626\u06d2": 3987, "\u2581\u0686\u0648\u0646\u06a9\u06c1": 3988, "\u2581final": 3989, "\u2581separate": 3990, "\u2581ship": 3991, "\u2581\u0627\u0648\u0646\u0686\u06d2": 3992, "As": 3993, "\u2581wombs": 3994, "\u0628\u06be\u0627\u0626\u06cc\u0648\u06ba": 3995, "\u2581Koran": 3996, "\u2581\u0627\u0633\u06a9\u0627": 3997, "\u2581\u0635\u0648\u0631": 3998, "\u2581\u0648\u062c\u0648\u062f": 3999, "\u2581\u06a9\u0631\u062f\u06cc\u062a\u06d2": 4000, "\u2581tribe": 4001, "\u2581\u0628\u06be\u0691\u06a9\u062a": 4002, "\u2581\u0631\u06a9\u06be\u062a\u06cc": 4003, "\u2581simply": 4004, "\u2581\u062f\u0627\u0626\u0645\u06cc": 4005, "\u062f\u0648\u0632\u062e": 4006, "\u2581stated": 4007, "\u2581streams": 4008, "\u2581\u067e\u0627\u0646\u0686": 4009, "\u2581\u06c1\u0648\u0646\u06af\u06d2": 4010, "\u0646\u0648\u0679": 4011, "\u2581paid": 4012, "\u2581preferred": 4013, "\u2581\u0632\u06a9\u0631\u06cc\u0627": 4014, "\u2581\u06cc\u0642\u06cc\u0646\u06cc": 4015, "\u2581front": 4016, "hearing": 4017, "\u2581barrier": 4018, "\u2581\u0645\u0627\u062f\u06c1": 4019, "\u2581\u0645\u062a\u0642\u06cc": 4020, "\u2581fate": 4021, "\u2581\u067e\u06c1\u0646\u0686\u062a\u0627": 4022, "\u2581\u06f3\u06f2": 4023, "\u2581\u0645\u0631\u06d2": 4024, "\u2581obeyed": 4025, "\u2581violence": 4026, "ever": 4027, "\u0644\u0627\u062a\u0627": 4028, "\u2581boy": 4029, "\u2581mouths": 4030, "\u2581ranks": 4031, "\u2581careful": 4032, "\u06a9\u0627\u0631": 4033, "\u2581worshipers": 4034, "\u2581\u0648\u063a\u06cc\u0631\u06c1": 4035, "\u2581line": 4036, "\u2581loved": 4037, "\u2581recompensed": 4038, "\u2581\u06af\u0627\u06c1": 4039, "g": 4040, "\u2581forgives": 4041, "\u2581qualities": 4042, "\u2581\u0645\u062d\u0631\u0648\u0645": 4043, "\u2581\u0688\u0627\u0644\u0646\u06d2": 4044, "\u2581principles": 4045, "\u2581succeed": 4046, "\u2581ability": 4047, "\u2581brethren": 4048, "\u2581building": 4049, "\u2581entire": 4050, "\u2581\u0646\u0645\u0628\u0631": 4051, "\u2581sending": 4052, "\u2581\u06a9\u06c1\u0626\u06d2": 4053, "\u0627\u0626\u06d2": 4054, "\u2581\u0645\u0648\u0645\u0646\u0648": 4055, "But": 4056, "\u2581\u0644\u06af\u0627\u06cc\u0627": 4057, "\u2581count": 4058, "\u2581involved": 4059, "\u2581messages": 4060, "\u2581worked": 4061, "\u2581\u0628\u062c\u0644\u06cc": 4062, "\u2581\u0639\u0642\u0644\u0645\u0646\u062f": 4063, "them": 4064, "\u2581Perhaps": 4065, "\u2581completely": 4066, "\u2581doers": 4067, "\u2581graves": 4068, "\u2581\u0628\u0634\u0631\u0637\u06cc\u06a9\u06c1": 4069, "\u2581\u0646\u0642\u0644": 4070, "\u2581\u0645\u0631\u0627\u062f": 4071, "Ad": 4072, "\u2581several": 4073, "\u2581\u067e\u0631\u0646\u062f\u0648\u06ba": 4074, "\u2581\u062a\u0631\u062c\u0645\u06c1": 4075, "\u2581\u0631\u0633": 4076, "\u2581\u0633\u0645\u062a": 4077, "\u2581attribute": 4078, "\u2581Praise": 4079, "\u2581humiliating": 4080, "\u2581\u062a\u0641\u0635\u06cc\u0644": 4081, "\u2581\u062e\u0633\u0627\u0631": 4082, "\u2581secretly": 4083, "\u2581\u0627\u0639\u062a\u0645\u0627\u062f": 4084, "\u0646\u0627\u06a9": 4085, "\u2581based": 4086, "\u2581\u062f\u06cc\u062c\u06cc\u06d2": 4087, "\u2581\u0641\u0631\u0632\u0646\u062f": 4088, "\u2581\u0644\u0637\u0641": 4089, "\u2581\u0645\u0646\u0627\u0641\u0642\u0648\u06ba": 4090, "\u2581\u067e\u06a9\u0627\u0631\u06d2": 4091, "\u2581\u06a9\u0645\u0632\u0648\u0631\u06cc": 4092, "\u2581temple": 4093, "\u2581\u0644\u06cc\u0627\u06d4": 4094, "Come": 4095, "\u2581descend": 4096, "\u2581partner": 4097, "\u2581peoples": 4098, "\u2581\u0631\u062d\u0645\u0646": 4099, "\u2581openly": 4100, "\u2581\u0631\u06c1\u0648\u06d4": 4101, "\u2581\u0645\u06a9\u06c1": 4102, "\u2581,": 4103, "\u2581nature": 4104, "\u2581\u063a\u0631\u06cc\u0628": 4105, "either": 4106, "\u2581Nuh": 4107, "\u2581\u0645\u0627\u0646\u06af\u0648": 4108, "\u2581\u0686\u0646": 4109, "\u2581Ever": 4110, "\u2581setting": 4111, "\u2581\u0628\u0646\u0627\u0646\u0627": 4112, "\u2581\u062d\u0627\u0645\u0644": 4113, "\u2581\u062f\u0641\u0639\u06c1": 4114, "\u2581\u0688\u0627\u06a9\u0679\u0631": 4115, "\u2581Before": 4116, "\u2581T": 4117, "\u2581start": 4118, "\u2581\u062a\u0627\u06a9\u06cc\u062f": 4119, "\u2581\u0644\u0691\u0648": 4120, "\u2581\u06af\u0632": 4121, "By": 4122, "T": 4123, "\u2581charge": 4124, "\u2581individuals": 4125, "\u2581E": 4126, "\u2581cease": 4127, "\u2581chapter": 4128, "\u2581miracles": 4129, "\u2581offered": 4130, "\u2581\u0628\u0633\u062a\u06cc\u0627\u06ba": 4131, "\u2581\u0645\u0633\u062a\u062d\u0642": 4132, "\u2581\u0646\u06cc\u06a9\u0648\u06a9\u0627\u0631": 4133, "\u2581differed": 4134, "\u2581master": 4135, "\u2581\u0633\u062c\u062f": 4136, "\u2581\u0645\u062f": 4137, "\u2581\u067e\u06be\u06cc\u0631\u06d2": 4138, "\u2581calamity": 4139, "\u2581\u0688\u0631\u0627\u0626\u06d2": 4140, "\u2581exists": 4141, "\u2581subject": 4142, "\u2581\u0628\u0646\u0627\u062f\u06cc\u0627": 4143, "\u2581\u062f\u06a9\u06be": 4144, "\u2581\u06c1\u0648\u0686\u06a9\u0627": 4145, "\u2581Fear": 4146, "\u2581asunder": 4147, "\u2581strengthened": 4148, "\u2581\u062d\u062c\u062a": 4149, "\u2581\u0646\u06a9\u0627\u0644\u062a\u06d2": 4150, "\u2581\u0686\u06cc\u0646": 4151, "able": 4152, "also": 4153, "\u2581shade": 4154, "\u2581\u0645\u0637\u0645\u0626\u0646": 4155, "\u2581garments": 4156, "\u2581\u0628\u0686\u0648": 4157, "\u2581\u0686\u0634\u0645\u06c1": 4158, "\u2581hours": 4159, "\u2581\u0645\u0628\u0646\u06cc": 4160, "\u2581\u0686\u0648\u0631\u06cc": 4161, "\u2581deceive": 4162, "\u0637": 4163, "\u2581serious": 4164, "\u2581\u0631\u06c1\u062a\u06cc": 4165, "\u2581\u0645\u062d\u062a\u0627\u062c": 4166, "\u258112:": 4167, "\u2581spring": 4168, "\u2581\u062c\u0627\u0626\u06d2\u06d4": 4169, "Surely": 4170, "\u258121": 4171, "\u2581\u062a\u0646\u0638\u06cc\u0645": 4172, "\u2581\u06c1\u062f\u0627\u06cc\u0627\u062a": 4173, "us": 4174, "\u2581ear": 4175, "\u2581inmates": 4176, "\u2581\u067e\u06c1\u0646\u0686\u0627\u06cc\u0627": 4177, "his": 4178, "\u2581served": 4179, "\u062a\u0645\u06c1\u06cc\u06ba": 4180, "\u062f\u06cc\u0646": 4181, "\u2581behalf": 4182, "\u2581dream": 4183, "\u2581\u0628\u06c1\u0627": 4184, "\u2581\u062c\u0627\u0646\u06cc\u06ba": 4185, "\u2581\u06af\u06cc\u062a": 4186, "\u2581attack": 4187, "\u2581travel": 4188, "\u2581\u0627\u062d\u062a\u0631\u0627\u0645": 4189, "\u2581actually": 4190, "\u2581wonderful": 4191, "That": 4192, "\u06a9\u0641\u0627\u0631": 4193, "\u2581\u06af\u0645": 4194, "polytheists": 4195, "\u2581minds": 4196, "\u2581valley": 4197, "\u2581\u062d\u06cc\u0627\u062a": 4198, "\u2581\u0646\u06a9\u0644\u062a\u0627": 4199, "\u2581Whe": 4200, "\u2581averse": 4201, "\u2581\u0628\u062e\u0634\u062a\u0627": 4202, "\u2581\u0628\u0646\u06cc\u0627\u062f\u06cc": 4203, "\u2581mortal": 4204, "\u2581\u062a\u062c\u0631\u0628\u06c1": 4205, "\u2581\u062f\u0648\u0691\u062a": 4206, "\u2581\u0637\u0648\u0641\u0627\u0646": 4207, "\u2581invite": 4208, "\u2581parties": 4209, "\u2581submission": 4210, "\u062e\u0627\u0635": 4211, "\u0644\u0627": 4212, "\u2581bellies": 4213, "\u2581beware": 4214, "\u2581underneath": 4215, "\u2581necks": 4216, "\u2581\u0633\u0646\u06cc": 4217, "\u2581fearing": 4218, "\u2581\u0634\u0628": 4219, "\u2581\u0646\u0627\u067e": 4220, "o": 4221, "\u2581rule": 4222, "\u2581\u0628\u0627\u0628\u0631\u06a9\u062a": 4223, "\u2581\u0633\u0648\u062f": 4224, "\u2581unbelief": 4225, "\u2581\u0628\u0631\u0642\u0631\u0627\u0631": 4226, "\u2581\u0634\u06cc\u0627\u0637\u06cc\u0646": 4227, "\u062d\u0636\u0631\u062a": 4228, "\u2581barren": 4229, "\u2581circumstances": 4230, "\u2581flowing": 4231, "\u2581material": 4232, "\u2581...": 4233, "\u2581fulfil": 4234, "\u2581\u062a\u06be\u0627\u0645": 4235, "\u2581\u0645\u06cc\u0639\u0627\u062f": 4236, "\u2581gate": 4237, "\u2581swift": 4238, "\u2581\u062f\u0644\u06cc\u0644\u06cc\u06ba": 4239, "\u2581spiritually": 4240, "\u2581\u062a\u0635\u0648\u06cc\u0631\u06cc\u06ba": 4241, "\u2581\u062a\u0639\u0645\u06cc\u0631": 4242, "\u2581Books": 4243, "\u2581\u0627\u0639\u0644\u0627\u0646": 4244, "\u2581\u062c\u0627\u0646\u0634\u06cc\u0646": 4245, "\u2581gracious": 4246, "\u2581scattered": 4247, "\u2581strayed": 4248, "\u2581imitate": 4249, "\u2581\u0627\u06a9\u0679\u06be\u0627": 4250, "\u2581\u0645\u0627\u0631\u0648": 4251, "\u2581\u0646\u0648\u06a9\u0631": 4252, "\u2581pledge": 4253, "\u2581\u0628\u0627\u0646\u062f\u06be\u06d2": 4254, "but": 4255, "\u2581supreme": 4256, "\u2581\u0631\u0633\u0627\u0644": 4257, "\u06cc\u062a": 4258, "\u2581sovereignty": 4259, "\u2581\u0639\u0630\u0631": 4260, "\u2581defend": 4261, "\u2581\u06f3\u06f4": 4262, "\u2581existence": 4263, "\u2581source": 4264, "\u2581\u062a\u0628\u062f\u06cc\u0644": 4265, "\u2581argue": 4266, "\u2581\u06cc\u0648\u062d": 4267, "\u2581fault": 4268, "\u2581\u0628\u0631\u0633\u0627\u06cc\u0627": 4269, "\u2581\u0641": 4270, "\u2581drop": 4271, "\u2581\u062f\u06be\u0648\u06a9\u06d2": 4272, "\u2581\u062f\u06cc\u06d4": 4273, "Satan": 4274, "\u06a9\u0648\u0639": 4275, "\u2581Until": 4276, "\u2581added": 4277, "\u2581delight": 4278, "\u2581explains": 4279, "\u2581\u0628\u0627\u0646\u062f\u06be": 4280, "\u2581\u062c\u06be\u0679\u0644\u0627\u0626\u06cc\u06ba": 4281, "\u2581\u0644\u0634\u06a9\u0631\u0648\u06ba": 4282, "Jesus": 4283, "\u2581\u0622\u0641\u062a\u0627\u0628": 4284, "p": 4285, "\u2581ordered": 4286, "\u2581\u0627\u0641\u0633\u06cc\u0648": 4287, "Had": 4288, "\u0636": 4289, "\u062d\u06a9\u0645": 4290, "\u2581disbelieving": 4291, "\u2581observed": 4292, "\u2581\u06af\u0631\u062f\u0634": 4293, "\u2581evident": 4294, "\u2581\u062d\u0633\u0646": 4295, "\u2581\u062f\u0628\u0627": 4296, "\u2581\u062a\u0648\u0641\u06cc\u0642": 4297, "\u2581\u0633\u0645\u062c\u06be\u062a\u0627": 4298, "\u2581\u067e\u06c1\u0646\u0686\u0627\u0626\u06d2": 4299, "\u2581Prayer": 4300, "\u2581flee": 4301, "\u2581\u0633\u0627\u06cc\u06c1": 4302, "\u2581continued": 4303, "\u2581reaches": 4304, "\u2581\u0628\u0637\u0648\u0631": 4305, "\u2581\u0645\u0645\u0627\u0644\u06a9": 4306, "il": 4307, "\u2581\u0633\u06cc\u0627\u06c1": 4308, "\u2581\u0635\u062d\u062a": 4309, "\u2581letter": 4310, "\u2581\u0627\u0644\u06c1": 4311, "\u2581\u0627\u0691\u0627\u062a\u06d2": 4312, "\u2581\u0642\u0631\u0627\u0628\u062a": 4313, "se": 4314, "\u2581\u06c1\u0688\u06cc\u0627\u06ba": 4315, "other": 4316, "\u2581bearer": 4317, "\u2581bearing": 4318, "\u2581\u062d\u06cc\u0631\u0627\u0646": 4319, "\u2581\u062f\u0627\u0646\u06cc": 4320, "\u2581presented": 4321, ";-": 4322, "\u2581closer": 4323, "\u2581field": 4324, "\u2581\u0627\u06cc\u0630\u0627": 4325, "\u06a9\u06be": 4326, "\u2581practice": 4327, "\u2581\u0634\u0627\u0626\u0639": 4328, "\u2581value": 4329, "\u2581\u0628\u0644\u0627\u0626\u06d2": 4330, "\u2581Footnote": 4331, "\u2581mutual": 4332, "\u2581pagans": 4333, "\u2581problem": 4334, "\u2581stone": 4335, "\u2581concern": 4336, "\u2581events": 4337, "\u2581Still": 4338, "\u2581\u067e\u0631\u0648\u06af\u0631\u0627\u0645": 4339, "\u2581\u0686\u0631\u0627\u063a": 4340, "\u2581list": 4341, "\u2581fabricate": 4342, "\u2581\u0645\u0633\u06a9\u06cc\u0646\u0648\u06ba": 4343, "\u0627\u0631": 4344, "\u2581Shu": 4345, "\u2581mere": 4346, "\u2581praises": 4347, "\u2581\u0645\u0627\u0644\u0648\u06ba": 4348, "he": 4349, "\u0633\u0631\u0627\u0633\u0631": 4350, "\u2581rebellion": 4351, "\u2581\u062a\u062d\u0631\u06cc\u06a9": 4352, "\u2581\u0635\u062d\u06cc\u0641\u0648\u06ba": 4353, "\u2581\u0634\u06a9\u0631\u06cc\u06c1": 4354, "\u2581forgotten": 4355, "\u2581terror": 4356, "\u2581\u06c1\u0648\u062c\u0627\u062a\u0627": 4357, "\u2581\u0646\u0631\u0645\u06cc": 4358, "\u2581United": 4359, "\u2581couches": 4360, "\u2581deniers": 4361, "\u2581keeping": 4362, "\u2581s": 4363, "\u2581\u0645\u0644\u062a\u06d2": 4364, "\u2581physical": 4365, "\u2581\u067e\u0691\u062a\u06d2": 4366, "\u2581\u06af\u0626\u06d2\u06d4": 4367, "\u2581\u06f0\u06f0\u06f0": 4368, "\u2581\u06c1\u0648\u062c\u0627\u062a\u06d2": 4369, "\u2581guardians": 4370, "\u2581\u0631\u0633\u0627\u0644\u062a": 4371, "\u2581fallen": 4372, "\u2581godfearing": 4373, "\u2581\u0622\u0632\u0627\u062f\u06cc": 4374, "\u0627\u062f\u0627\u0634": 4375, "\u2581Whenever": 4376, "\u2581\u0627\u0628\u0646": 4377, "\u2581\u062c\u06be\u06a9\u0627": 4378, "\u2581\u0634\u0641\u0627": 4379, "\u2581\u0686\u0627\u0646\u062f\u06cc": 4380, "\u2581creature": 4381, "\u2581loyal": 4382, "\u2581Pictures": 4383, "\u2581persecution": 4384, "\u2581\u067e\u06be\u06cc\u0644": 4385, "\u2581inheritance": 4386, "\u2581\u0634\u0631": 4387, "\u2581mine": 4388, "\u2581\u0646\u06cc\u06a9\u0648\u06a9\u0627\u0631\u0648\u06ba": 4389, "\u2581expend": 4390, "\u2581\u06a9\u0631\u0644\u06cc": 4391, "\u2581\u06a9\u06be\u0644": 4392, "\u2581Enter": 4393, "\u2581\u0641\u0631\u06cc\u0642": 4394, "\u0627\u067e\u0646\u0627": 4395, "\u2581Penalty": 4396, "\u2581Upon": 4397, "\u2581responsibility": 4398, "\u2581Good": 4399, "\u06af\u0646\u0627": 4400, "\u2581split": 4401, "\u2581\u0646\u06a9\u0644\u06cc\u06ba": 4402, "\u2581cloud": 4403, "\u2581cautious": 4404, "\u2581\u0628\u062e\u0634\u0627": 4405, "\u2581burdens": 4406, "\u2581\u0645\u0627\u06c1\u0631": 4407, "\u2581criminals": 4408, "\u2581moving": 4409, "\u2581Iblis": 4410, "\u2581Yusuf": 4411, "\u2581\u0688\u0627\u0644\u06cc": 4412, "only": 4413, "\u2581occurred": 4414, "\u2581\u067e\u06a9\u0691\u06d2": 4415, "\u2581lower": 4416, "\u2581virtue": 4417, "\u2581\u0627\u0633\u0628\u0627\u0628": 4418, "\u2581\u0631\u0627\u0626\u06d2": 4419, "\u0622\u062e\u0631\u062a": 4420, "\u2581attend": 4421, "\u2581\u0327": 4422, "\u2581\u062e\u062f\u0627\u0624\u06ba": 4423, "\u2581\u0645\u062f\u06cc\u0646": 4424, "\u2581\u0641\u062f\u06cc\u06c1": 4425, "\u2581ago": 4426, "\u2581door": 4427, "\u2581\u0635\u0641": 4428, "\u2581\u0639\u0631\u0635\u06c1": 4429, "\u2581desired": 4430, "\u2581\u0622\u06a9\u0631": 4431, "\u2581\u067e\u0648\u0644": 4432, "\u2581\u0686\u0627\u06c1\u062a\u06cc": 4433, "\u2581James": 4434, "\u2581disputed": 4435, "\u2581host": 4436, "\u2581worshippers": 4437, "\u2581\u0628\u0627\u06c1\u0645\u06cc": 4438, "even": 4439, "\u2581Instead": 4440, "\u2581merely": 4441, "\u2581\u0645\u0648\u06cc\u0634\u06cc": 4442, "\u2581\u0646\u0628\u0648\u062a": 4443, "\u2581commandment": 4444, "\u2581\u062f\u0633\u062a": 4445, "\u0642\u062a": 4446, "\u2581suffered": 4447, "ance": 4448, "\u2581\u0628\u0631\u0633\u0627\u062a": 4449, "\u2581\u067e\u06cc\u0627\u0631": 4450, "\u2581fulfill": 4451, "\u2581treasures": 4452, "\u2581\u0644\u0691\u06a9\u0627": 4453, "\u2581\u0646\u062a\u0627\u0626\u062c": 4454, "\u2581mislead": 4455, "\u2581prophecy": 4456, "\u2581\u06af\u0646": 4457, "\u0644\u06d2": 4458, "\u2581adversity": 4459, "\u2581\u0627\u0645\u062a\u062d\u0627\u0646": 4460, "\u2581\u062c\u0627\u0626\u0632": 4461, "\u2581\u067e\u06be\u0644\u0648\u06ba": 4462, "\u0627\u0647": 4463, "\u0646\u0638\u0631": 4464, "\u2581Grace": 4465, "\u2581Greek": 4466, "\u2581action": 4467, "\u2581misfortune": 4468, "\u2581\u0645\u0642\u062f\u0627\u0631": 4469, "Taste": 4470, "\u2581heat": 4471, "\u2581\u0628\u06be\u0631\u06cc": 4472, "\u2581\u0628\u06be\u0648\u06a9": 4473, "\u2581\u0639\u062f\u062a": 4474, "\u2581\u0639\u06cc\u0634": 4475, "\u2581\u0646\u0648\u062d\u0611": 4476, "place": 4477, "sufficient": 4478, "\u2581husbands": 4479, "\u2581transgression": 4480, "\u2581\u0639\u0631\u0635": 4481, "\u2581\u0686\u06a9\u06be\u0627\u0626\u06cc\u06ba": 4482, "\u2581\u06c1\u0648\u06af\u06cc\u06d4": 4483, "\u0628\u0627\u062a": 4484, "\u2581Worship": 4485, "\u2581d": 4486, "\u2581aforetime": 4487, "\u2581\u0633\u0645\u062c\u06be\u06cc\u06ba": 4488, "\u2581\u067e\u06cc\u0631\u0648\u06a9\u0627\u0631": 4489, "Enter": 4490, "\u2581\u06c1\u06cc\u06a9\u0644": 4491, "doing": 4492, "\u2581dry": 4493, "\u2581\u0628\u06a9\u0633": 4494, "\u2581\u062c\u0627\u0646\u0648": 4495, "\u2581\u0633\u0628\u0632": 4496, "\u2581\u0633\u0632\u0627\u0648\u0627\u0631": 4497, "\u2581\u0644\u06af\u0648": 4498, "\u2581Command": 4499, "\u2581\u0628\u0644\u0646\u062f\u06cc": 4500, "\u2581\u0630\u06c1\u0646": 4501, "\u2581\u0645\u0637\u0627\u0644\u0639": 4502, "D": 4503, "\u0633\u062a": 4504, "\u2581Wherefore": 4505, "\u2581rank": 4506, "\u2581\u0645\u0624": 4507, "\u2581Watchtower": 4508, "\u2581history": 4509, "\u2581walking": 4510, "\u2581\u0679\u06be\u06c1\u0631\u0627\u062a\u06d2": 4511, "\u2581\u0686\u06be\u067e\u0627\u0626\u06d2": 4512, "\u2581Taurat": 4513, "\u2581hire": 4514, "\u2581prevented": 4515, "\u2581telling": 4516, "\u25814.": 4517, "\u2581lord": 4518, "\u2581consequences": 4519, "\u2581\u0646\u0627\u0634\u06a9\u0631\u0627": 4520, "\u2581black": 4521, "\u2581orphan": 4522, "\u2581resting": 4523, "\u2581utterly": 4524, "\u2581\u0645\u062e\u0627\u0644\u0641": 4525, "\u2581\u0646\u0648\u062c\u0648\u0627\u0646\u0648\u06ba": 4526, "\u2581\u06a9\u06be\u06cc\u0646\u0686": 4527, "\u0691\u06d2": 4528, "\u2581quit": 4529, "\u2581\u0636\u0631\u0648\u0631\u06cc\u0627\u062a": 4530, "\u2581\u06a9\u0631\u062f\u06cc\u0626\u06d2": 4531, "\u2581decisions": 4532, "\u2581\u0627\u0646\u062a\u0642\u0627\u0645": 4533, "\u2581\u0641\u0631\u062f\u0648\u0633": 4534, "\u258110:": 4535, "\u2581hears": 4536, "\u2581\u0633\u0648\u0631\u062a": 4537, "\u2581\u0634\u0631\u0641": 4538, "\u2581\u0634\u06a9\u0631\u06af\u0632\u0627\u0631": 4539, "\u2581\u06cc\u06a9\u0633\u0627\u06ba": 4540, "\u06a9\u0641\u0631": 4541, "\u2581aright": 4542, "\u2581\u0627\u0628\u0631\u0627\u06be\u06cc\u0645": 4543, "\u2581program": 4544, "\u2581\u062e\u0644\u0642\u062a": 4545, "\u2581\u0639\u0645\u0627\u0631\u062a": 4546, "\u2581\u0645\u0636\u0628\u0648\u0637\u06cc": 4547, "\u0627\u0644\u062a": 4548, "\u2581\u0635\u062f\u0642\u06c1": 4549, "Where": 4550, "\u2581honourable": 4551, "\u2581pain": 4552, "\u2581\u0645\u0634\u0648\u0631\u062a": 4553, "\u2581\u067e\u06cc\u0631\u0648": 4554, "\u2581road": 4555, "\u2581\u0628\u0648\u0644\u062a\u06d2": 4556, "\u2581\u0648\u0641\u0627\u062f\u0627\u0631\u06cc": 4557, "\u25812.": 4558, "\u2581affect": 4559, "\u2581\u0646\u0639\u0645\u062a\u06cc\u06ba": 4560, "\u2581stronger": 4561, "\u2581visited": 4562, "\u2581\u0627\u0633\u0645\u0627\u0639\u06cc\u0644": 4563, "\u2581\u0631\u0627\u0633": 4564, "\u2581\u0646\u0628\u06cc\u0648\u06ba": 4565, "\u2581misdeeds": 4566, "\u2581\u0633\u0645\u06cc\u062a": 4567, "\u2581\u0633\u0648\u0686\u0627": 4568, "\u0622\u0626\u0646\u062f\u06c1": 4569, "\u2581rising": 4570, "\u2581\u0627\u06cc\u0646": 4571, "\u2581Daniel": 4572, "\u2581courage": 4573, "\u0627\u0648\u0646\u062f\u06be\u06d2": 4574, "\u2581\u0631\u0648\u0627\u06ba": 4575, "\u2581\u067e\u06be\u0627\u0691": 4576, "\u2581Was": 4577, "\u2581armies": 4578, "\u2581enjoyed": 4579, "\u2581goods": 4580, "\u2581shal": 4581, "\u0641\u0642\u0637": 4582, "\u2581tarried": 4583, "\u2581\u0627\u0648\u0646\u0679\u0646\u06cc": 4584, "\u2581\u062e\u0631\u0627\u0628": 4585, "\u2581\u0634\u0639\u0648\u0631": 4586, "\u2581\u06a9\u0627\u06c1\u0646": 4587, "\u2581\u06a9\u06c1\u06cc\u06d2": 4588, "\u2581Dur": 4589, "\u2581pursued": 4590, "\u2581\u0627\u0645\u0648\u0627\u0644": 4591, "\u2581\u06cc\u0631\u0645\u06cc\u0627\u06c1": 4592, "\u2581Hearer": 4593, "\u2581\u067e\u06be\u0631\u06d2": 4594, "\u2581\u06c1\u0633\u062a\u06cc": 4595, "then": 4596, "\u2581argument": 4597, "\u2581\u0627\u0644\u0679": 4598, "\u2581\u062d\u0645\u0627\u06cc\u062a\u06cc": 4599, "\u2581\u06cc\u0648\u0646\u0627\u0646\u06cc": 4600, "\u2581fish": 4601, "\u2581iron": 4602, "\u2581\u0633\u06cc\u0631": 4603, "\u2581direct": 4604, "\u2581\u0686\u0634\u0645\u0648\u06ba": 4605, "\u2581disobedience": 4606, "\u2581advance": 4607, "\u2581\u0628\u06be\u0631\u067e\u0648\u0631": 4608, "\u2581\u062f\u0627\u0645\u0646": 4609, "b": 4610, "\u2581\u0627\u0632": 4611, "\u2581\u067e\u0627\u062a\u0627": 4612, "\u2581Sign": 4613, "\u2581\u067e\u06be\u0631\u0648": 4614, "\u2581activities": 4615, "\u2581address": 4616, "\u2581appeared": 4617, "\u2581trying": 4618, "\u2581\u0679\u06be\u06c1\u0631\u06d2": 4619, "\u2581\u0645\u0627\u0631\u062a\u0627": 4620, "\u2581\u0645\u0627\u06c1": 4621, "\u0674": 4622, "\u2581\u0627\u062a\u0646\u06d2": 4623, "\u2581\u0635\u0644\u0627\u062d\u06cc\u062a": 4624, "\u2581Salih": 4625, "\u2581sort": 4626, "\u2581willingly": 4627, "\u2581\u0622\u0686\u06a9\u0627": 4628, "Let": 4629, "\u2581Come": 4630, "\u2581\u0686\u0645\u06a9": 4631, "\u2581arrived": 4632, "\u2581broke": 4633, "\u2581eight": 4634, "\u2581\u0622\u0679\u06be": 4635, "\u2581\u0627\u0633\u062a\u063a\u0641\u0627\u0631": 4636, "\u062f\u0648\u0628\u0627\u0631\u06c1": 4637, "\u06c1\u0645\u0627\u0631\u06d2": 4638, "\u2581instance": 4639, "\u2581sealed": 4640, "\u2581\u0633\u0648\u0627\u0644\u0648\u06ba": 4641, "\u2581\u06a9\u0639\u0628\u06c1": 4642, "\u2581\u06af\u06cc\u0627\u06d4": 4643, "\u258111:": 4644, "\u2581mocked": 4645, "\u2581\u0628\u0648\u0644\u0646\u06d2": 4646, "\u2581\u062a\u0639\u0644\u0642\u0627\u062a": 4647, "\u2581\u062e\u0631\u06cc\u062f": 4648, "\u2581\u0646\u06a9\u0644\u0627": 4649, "\u2581looked": 4650, "\u2581magicians": 4651, "\u2581\u06a9\u0631\u06cc\u0646\u06af\u06d2": 4652, "\u2581Zalimun": 4653, "\u2581avert": 4654, "\u2581confidence": 4655, "\u2581mock": 4656, "\u2581\u0631\u0633\u06cc": 4657, "\u2581awe": 4658, "\u2581tested": 4659, "\u2581sail": 4660, "\u2581\u0628\u0644\u0627\u062a": 4661, "\u2581friendship": 4662, "\u2581\u0642\u0631\u0628\u062a": 4663, "\u2581Protector": 4664, "\u2581exalt": 4665, "\u2581older": 4666, "\u2581\u062c\u0627\u0646\u0686": 4667, "\u2581\u062f\u0644\u06cc": 4668, "\u2581\u0644\u06af\u0627\u0646\u06d2": 4669, "\u2581\u0646\u0645\u0627\u06cc\u0627\u06ba": 4670, "\u2581\u062c\u0645": 4671, "\u2581\u062d\u062f\u0648\u062f": 4672, "\u2581\u0646\u06cc\u0646\u062f": 4673, "\u06a9\u0631\u062f\u06c1": 4674, "\u2581Eat": 4675, "\u2581disclose": 4676, "\u2581load": 4677, "\u2581opportunity": 4678, "\u2581\u0639\u06cc\u0633": 4679, "\u2581\u0642\u0628\u0636\u06c1": 4680, "\u2581\u06a9\u06be\u0627\u0626\u06d2": 4681, "\u258110.": 4682, "\u2581First": 4683, "\u2581assign": 4684, "\u2581indecency": 4685, "\u2581violent": 4686, "\u2581\u0645\u0628\u0627\u0631\u06a9": 4687, "\u2581\u06c1\u0648\u0634": 4688, "\u067e\u06cc\u063a\u0645\u0628\u0631": 4689, "\u2581animal": 4690, "\u2581answers": 4691, "\u2581declared": 4692, "\u2581refuse": 4693, "\u2581\u062f\u06cc\u0648\u0627\u0646\u06c1": 4694, "one": 4695, "\u2581rewards": 4696, "\u2581secrets": 4697, "\u2581\u0645\u0627\u0631\u0627": 4698, "\u06a9\u0627\u0641\u0631\u0648\u06ba": 4699, "\u2581\u0639\u0635\u0627": 4700, "\u2581bears": 4701, "\u2581overtook": 4702, "\u2581response": 4703, "\u2581pages": 4704, "\u2581satan": 4705, "\u2581spouses": 4706, "\u2581\u0633\u0648\u0686\u06cc\u06ba": 4707, "\u2581Ishmael": 4708, "\u2581\u062c\u0633\u0645\u0627\u0646\u06cc": 4709, "\u2581generation": 4710, "\u2581increases": 4711, "\u2581invited": 4712, "\u2581\u06a9\u06cc\u0648\u0646\u06a9\u0631": 4713, "\u2581Though": 4714, "\u2581goal": 4715, "\u2581saith": 4716, "\u2581skins": 4717, "\u2581\u0646\u0627\u0645\u06c1": 4718, "\u062a\u0648\u0631\u06cc\u062a": 4719, "\u2581informed": 4720, "\u2581poverty": 4721, "\u2581safety": 4722, "\u2581treasure": 4723, "\u2581\u0645\u0633\u06a9\u06cc\u0646": 4724, "\u2581\u0622\u063a\u0627\u0632": 4725, "\u2581guideth": 4726, "\u2581\u067e\u0648\u062c\u0627": 4727, "\u062e": 4728, "\u2581government": 4729, "\u2581\u062d\u0645\u0644": 4730, "\u2581\u0688\u0627\u0644\u062a\u0627": 4731, "\u2581Universe": 4732, "\u2581swallow": 4733, "\u2581\u0645\u0633\u0626\u0644": 4734, "\u2581\u0645\u0639\u0646\u06cc": 4735, "\u064a": 4736, "\u06c1\u0648": 4737, "\u2581According": 4738, "\u2581provisions": 4739, "\u2581\u062e\u06cc\u0627\u0644\u0627\u062a": 4740, "\u2581\u06c1\u0648\u062f": 4741, "\u2581apply": 4742, "\u2581balance": 4743, "\u2581\u062e\u0637\u0631\u06c1": 4744, "\u2581\u0646\u06a9\u0627\u0644\u0646\u06d2": 4745, "mankind": 4746, "\u2581Maryam": 4747, "\u2581\u0634\u0631\u0645": 4748, "\u0686\u0648\u067e\u0627\u06cc\u0648\u06ba": 4749, "\u2581expelled": 4750, "\u2581\u062a\u0635\u0648\u0631": 4751, "\u2581\u0646\u0648\u0627\u0632\u0627": 4752, "\u2581Eden": 4753, "\u2581M": 4754, "\u2581\u062e\u0644\u0642": 4755, "\u2581\u06a9\u0631\u06cc\u06af\u0627": 4756, "\u2581\u0628\u0627\u0631\u06c1": 4757, "\u2581\u0648\u0627\u0639\u0638": 4758, "\u2581Hebrews": 4759, "\u2581Save": 4760, "\u2581Show": 4761, "\u2581extent": 4762, "\u2581ward": 4763, "\u2581dark": 4764, "\u2581pieces": 4765, "\u2581\u0633\u0631\u0632\u0645\u06cc\u0646": 4766, "\u2581\u0645\u0627\u0626\u06cc\u06ba": 4767, "\u2581allies": 4768, "\u2581local": 4769, "\u2581\u062c\u0648\u0627\u0646\u06cc": 4770, "\u2581\u0632\u06cc\u0631": 4771, "\u2581\u0645\u0627\u0646\u06af\u0627": 4772, "\u2581\u0645\u0648\u062a\u06cc": 4773, "\u2581harvest": 4774, "\u2581similitude": 4775, "\u2581\u062c\u0646\u06af\u0644": 4776, "\u2581\u0644\u067e\u06cc\u0679": 4777, "\u2581\u06c1\u0648\u0634\u06cc\u0627\u0631": 4778, "\u2581generous": 4779, "\u2581hunger": 4780, "\u2581\u0628\u062a\u0627\u062a\u0627": 4781, "\u2581\u062d\u0633\u062f": 4782, "\u2581\u0633\u06cc\u06a9\u06be\u062a\u06d2": 4783, "\u2581lands": 4784, "\u0645\u06c1\u06cc\u0646\u0648\u06ba": 4785, "\u2581G": 4786, "\u2581type": 4787, "\u2581\u062a\u0645\u062b\u06cc\u0644": 4788, "\u2581\u062e\u0648\u0628\u0635\u0648\u0631\u062a": 4789, "\u2581\u0645\u0639\u0627\u0648\u0636\u06c1": 4790, "\u2581\u0646\u0642\u0634": 4791, "\u2581\u0648\u0627\u0644\u06cc\u0627\u06ba": 4792, "\u2581Genesis": 4793, "\u2581\u0628\u06c1\u0634\u062a\u0648\u06ba": 4794, "camel": 4795, "\u062e\u062f\u0627\u0626\u06d2": 4796, "\u062f\u0644": 4797, "\u0645\u06cc\u0631\u06d2": 4798, "\u2581\u0628\u062a\u0627\u0646\u06d2": 4799, "\u2581\u06a9\u0645\u0627\u06cc\u0627": 4800, "\u2581prefer": 4801, "\u2581sorcery": 4802, "\u2581\u0628\u06cc\u0679\u06cc": 4803, "\u2581\u062c\u0644\u0627\u0644": 4804, "\u2581\u0639\u0627\u062f\u062a": 4805, "\u2581\u0642\u0635\u06c1": 4806, "\u2581\u0679\u06be\u06c1\u0631\u0627\u06cc\u0627": 4807, "\u2581\u0628\u0646\u0627\u06a9\u0631": 4808, "\u2581\u0630\u0645\u06d2": 4809, "\u2581changes": 4810, "\u2581\u0628\u0644\u0627\u062a\u0627": 4811, "\u2581\u067e\u0631\u062f\u06d2": 4812, "\u2581big": 4813, "\u2581\u062c\u0646\u0627\u062a": 4814, "\u2581imagine": 4815, "\u2581youths": 4816, "\u2581\u0634\u0641\u0627\u0639\u062a": 4817, "\u062f\u06be\u0631": 4818, "\u0632\u0646\u062f\u06af\u06cc": 4819, "\u2581devoted": 4820, "\u2581statement": 4821, "\u2581\u062a\u0639\u0644\u06cc\u0645\u0627\u062a": 4822, "\u2581\u062c\u0627\u0646\u062f\u0627\u0631": 4823, "\u2581\u0688\u0631\u06d2": 4824, "\u2581\u06f3\u06f5": 4825, "\u258123": 4826, "\u2581lofty": 4827, "\u2581\u06cc\u06c1\u0648\u062f": 4828, "\u2581addition": 4829, "\u2581\u062e\u0648\u0628\u06cc\u0627\u06ba": 4830, "\u2581\u062f\u0634\u0645\u0646\u06cc": 4831, "\u2581\u0637\u0631\u0632": 4832, "\u2581harmdoers": 4833, "\u2581\u0646\u062a\u06cc\u062c": 4834, "\u25817:": 4835, "\u2581hinder": 4836, "\u2581discourse": 4837, "\u2581\u0622\u0644": 4838, "\u2581\u062a\u0627\u0632\u06c1": 4839, "\u2581\u062c\u06be\u0648\u0646\u06a9": 4840, "\u2581Muslim": 4841, "\u2581Seeing": 4842, "\u2581begin": 4843, "\u2581purified": 4844, "\u2581sets": 4845, "\u2581\u062a\u062d\u062a": 4846, "\u2581de": 4847, "\u2581desert": 4848, "\u2581judges": 4849, "\u2581scriptures": 4850, "\u2581throughout": 4851, "\u2581\u0628\u0627\u0628": 4852, "\u2581\u062c\u0646\u0627\u0628": 4853, "\u2581\u0645\u06a9\u0627\u0646": 4854, "\u2581devour": 4855, "\u2581nights": 4856, "\u2581\u0645\u0644\u06cc\u06ba": 4857, "\u0627\u0639\u0645\u0627\u0644": 4858, "\u2581\u0622\u0686\u06a9\u06cc": 4859, "\u2581Here": 4860, "\u2581available": 4861, "\u2581detail": 4862, "\u2581excuses": 4863, "\u2581\u0686\u06be\u0648": 4864, "\u2581inside": 4865, "\u2581\u062d\u0631\u0645\u062a": 4866, "\u2581\u062e\u0627\u06a9": 4867, "there": 4868, "\u0633\u062a\u0639\u0645\u0627\u0644": 4869, "\u0686\u06a9\u06d2": 4870, "\u2581adornment": 4871, "\u2581\u0628\u0631\u062a\u0627\u0624": 4872, "\u2581\u062f\u06a9\u06be\u0627\u0626\u06cc\u06ba": 4873, "\u2581stood": 4874, "\u2581surrender": 4875, "\u2581thrown": 4876, "\u2581\u067e\u06d2": 4877, "\u0622\u062c": 4878, "\u2581certainty": 4879, "\u2581getting": 4880, "\u2581affection": 4881, "\u2581\u0648\u0627\u062f\u06cc": 4882, "\u2581\u06af\u0644\u06d2": 4883, "\u2581\u067e\u0691\u062a\u06cc": 4884, "\u258133": 4885, "\u2581Hence": 4886, "\u2581Scriptural": 4887, "\u2581\u06a9\u06be\u0648": 4888, "\u2581\u06f3\u06f7": 4889, "\u0644\u0627\u0634": 4890, "some": 4891, "\u2581area": 4892, "\u2581\u0627\u0648\u0631\u0648\u06c1": 4893, "\u2581\u0628\u0627\u0632\u0648": 4894, "\u2581\u062d\u0627\u0645\u06cc": 4895, "\u2581\u0634\u062f\u06c1": 4896, "Woe": 4897, "others": 4898, "\u2581disbelieves": 4899, "\u2581foot": 4900, "\u2581\u0645\u0631\u06a9\u0632": 4901, "\u2581\u0645\u06cc\u0646\u06c1": 4902, "\u2581\u0646\u0645\u0648\u0646\u06c1": 4903, "\u0633\u0631\u0627\u0626\u06cc\u0644": 4904, "\u2581burn": 4905, "\u2581\u0635\u062d\u06cc\u0641": 4906, "\u2581\u06af\u0645\u0631\u0627\u0647": 4907, "\u2581Add": 4908, "\u2581Lut": 4909, "\u2581grave": 4910, "\u2581river": 4911, "\u2581shame": 4912, "\u2581\u062a\u0642\u0648": 4913, "\u2581\u0631\u0646\u062c\u06cc\u062f": 4914, "compassionate": 4915, "\u0631\u0627\u06c1": 4916, "\u2581treaty": 4917, "\u2581\u0679\u0648\u0679": 4918, "\u2581Bring": 4919, "\u2581Call": 4920, "\u2581Cause": 4921, "\u2581silk": 4922, "\u2581\u0627\u0648\u0646\u0686\u06cc": 4923, "\u2581\u067e\u0691\u06be\u0648": 4924, "\u2581fabricated": 4925, "\u2581\u0648\u0627\u062d\u062f": 4926, "\u2581\u0622\u06af\u0626\u06cc": 4927, "\u2581\u0633\u0645\u06cc\u0679": 4928, "\u2581Bounty": 4929, "\u2581Godwary": 4930, "\u2581business": 4931, "\u2581mate": 4932, "For": 4933, "Knower": 4934, "\u2581deem": 4935, "\u2581gush": 4936, "\u2581\u0644\u0648\u06d4": 4937, "\u2581forged": 4938, "\u2581nine": 4939, "\u2581restore": 4940, "\u2581showing": 4941, "\u2581\u067e\u06be\u0631\u0646\u0627": 4942, "now": 4943, "\u062a\u0627\u06a9\u06c1": 4944, "\u2581formed": 4945, "\u2581organization": 4946, "\u2581payment": 4947, "\u2581\u062e\u0627\u0644\u06cc": 4948, "\u2581\u0637\u0648\u0642": 4949, ")?\"": 4950, "\u2581expel": 4951, "\u2581supported": 4952, "\u2581\u0634\u0631\u06cc\u0631": 4953, "\u0630\u0631\u06c1": 4954, "\u2581shelter": 4955, "\u2581\u0632\u06cc\u062a\u0648\u0646": 4956, "\u2581\u06c1\u0641\u062a\u06d2": 4957, "\u0628\u062e\u0634": 4958, "\u0642\u0648\u0645": 4959, "\u2581await": 4960, "\u2581couple": 4961, "\u2581privilege": 4962, "\u2581\u062c\u0646\u0633": 4963, "\u2581trouble": 4964, "\u2581Keep": 4965, "\u2581appreciate": 4966, "\u2581choice": 4967, "\u2581express": 4968, "\u2581\u062a\u0648\u0644": 4969, "\u2581\u062f\u0627\u06c1\u0646\u06d2": 4970, "\u2581\u0645\u0639\u062c\u0632\u06c1": 4971, "\u2581\u062e": 4972, "\u2581\u0645\u0632\u0627": 4973, "\u2581\u0645\u0644\u06a9\u06cc\u062a": 4974, "\u2581\u06af\u0631\u06cc\u0632": 4975, "\u25818.": 4976, "\u2581\u0627\u0648\u0631\u062c\u0648": 4977, "\u2581\u0639\u0644\u0627\u0642\u0648\u06ba": 4978, "\u2581incline": 4979, "\u2581nay": 4980, "\u2581\u062f\u0627\u062f": 4981, "\u2581enmity": 4982, "\u2581exposed": 4983, "\u2581replace": 4984, "\u2581\u067e\u06be\u06cc\u0644\u0627\u062a": 4985, "\u2581crops": 4986, "\u2581salvation": 4987, "\u2581teachings": 4988, "\u2581\u0641\u06cc\u0635\u062f": 4989, "\u2581\u0644\u0627\u0646\u0627": 4990, "\u0646\u062f\u06d2": 4991, "\u2581Extract": 4992, "\u2581Wisdom": 4993, "\u2581standards": 4994, "\u2581terms": 4995, "\u2581\u0639\u0644\u0627\u062c": 4996, "\u2581\u0686\u06be\u067e\u06cc": 4997, "good": 4998, "\u2581\u0686\u0648\u067e\u0627\u0626\u06d2": 4999, "\u2581\u0645\u0633\u0627\u0641\u0631\u0648\u06ba": 5000, "\u2581dealt": 5001, "\u2581event": 5002, "\u2581\u067e\u0633\u062a": 5003, "\u2581\u0628\u0627\u062f\u0644\u0648\u06ba": 5004, "\u2581\u062d\u0648\u0627": 5005, "\u2581\u0633\u062a\u0627\u0631\u0648\u06ba": 5006, "\u2581\u0641\u06cc": 5007, "\u2581\u0686\u06be\u062a": 5008, "\u0648\u06cc": 5009, "\u2581\u062f\u0639\u0627\u0626": 5010, "\u2581\u0645\u0686\u06be\u0644\u06cc": 5011, "\u2581justly": 5012, "\u2581wall": 5013, "\u2581\u0646\u06a9\u0644\u062a\u06d2": 5014, "\u2581\u067e\u06a9\u0627\u0631\u06cc\u06ba": 5015, "\u2581\u062f\u0627\u0646\u0634\u0645\u0646\u062f": 5016, "\u2581Ark": 5017, "\u2581percent": 5018, "\u2581\u0627\u0679\u06be\u06d2": 5019, "\u2581\u062f\u0626\u06cc\u06d2": 5020, "\u2581\u0646\u0627\u0645\u06cc": 5021, "\u2581\u067e\u0631\u06cc\u0634\u0627\u0646\u06cc": 5022, "Mighty": 5023, "\u0639\u0644\u0627\u0646\u06cc\u06c1": 5024, "\u2581Therein": 5025, "\u2581experienced": 5026, "\u2581\u0648\u0641\u0627\u062a": 5027, "\u0628\u062a\u0648\u06ba": 5028, "\u06a9\u0627\u0641\u0631": 5029, "\u2581bitter": 5030, "\u2581heirs": 5031, "\u2581moral": 5032, "\u2581related": 5033, "\u2581speaks": 5034, "\u2581\u0632\u0628\u0631\u062f\u0633\u062a\u06cc": 5035, "\u2581\u0642\u0628\u0644\u06c1": 5036, "\u2581Blessed": 5037, "\u2581\u062c\u06be\u0679\u0644\u0627\u0626\u06d2": 5038, "\u2581\u0631\u0627\u0633\u062a\u06cc": 5039, "\u2581\u0631\u0648\u06cc": 5040, "\u2581class": 5041, "\u2581room": 5042, "\u2581\u0627\u0646\u062f\u0627\u0632\u06d2": 5043, "\u2581\u0628\u0635\u06cc\u0631\u062a": 5044, "\u2581\u0631\u06c1\u06d2\u06d4": 5045, "\u2581\u0645\u0642\u0631\u0628": 5046, "\u2581Follow": 5047, "\u2581\u067e\u06c1\u0646\u0686\u0627\u0646\u0627": 5048, "\u2581daughter": 5049, "\u2581realized": 5050, "\u2581\u0627\u0645\u0648\u0631": 5051, "\u2581\u0688\u06be\u06cc\u0644": 5052, "\u25817.": 5053, "\u2581obtain": 5054, "\u2581ridicule": 5055, "\u2581integrity": 5056, "\u2581\u062c\u0627\u0626\u0632\u06c1": 5057, "\u2581\u062c\u0630\u0628\u0627\u062a": 5058, "\u062a\u0645\u0627\u0645": 5059, "\u2581overtake": 5060, "\u2581\u0645\u0634\u0642\u062a": 5061, "\u2581admitted": 5062, "\u2581Leave": 5063, "\u2581Saul": 5064, "\u2581Verses": 5065, "\u2581chastise": 5066, "\u2581frustrate": 5067, "\u2581visible": 5068, "\u2581\u0627\u0679\u06be\u0627\u0626\u06cc\u06ba": 5069, "\u2581\u063a\u0635\u06d2": 5070, "\u2581\u0688\u0628\u0648": 5071, "\u062d\u06a9\u0645\u062a": 5072, "\u2581million": 5073, "\u2581ruined": 5074, "\u2581\u0628\u062a\u0627\u0624\u06ba": 5075, "\u2581\u0628\u0646\u062f\u0648\u0628\u0633\u062a": 5076, "\u2581\u0645\u0631\u0642\u0633": 5077, "\u2581\u0648\u06cc\u0633\u06d2": 5078, "\u2581fresh": 5079, "Take": 5080, "\u2581immediately": 5081, "\u2581regularly": 5082, "\u0646\u0633\u0627": 5083, "\u2581Owner": 5084, "\u2581shirt": 5085, "\u2581wary": 5086, "\u2581\u0627\u0645\u0631\u06cc\u06a9\u06c1": 5087, "\u2581\u0627\u0648\u0642\u0627\u062a": 5088, "\u2581\u0633\u0627\u0644\u06c1": 5089, "\u2581\u0645\u0642\u0635\u0648\u062f": 5090, "\u258112.": 5091, "\u2581consequence": 5092, "\u2581prostrating": 5093, "\u2581vital": 5094, "\u2581\u0627\u0631\u0627\u062f": 5095, "\u062f\u06d2": 5096, "\u2581Hast": 5097, "\u2581chaste": 5098, "\u2581eating": 5099, "\u2581honoured": 5100, "\u2581seas": 5101, "\u2581transgressing": 5102, "\u2581\u062d\u0627\u062c\u062a": 5103, "\u2581\u062f\u06cc\u06a9\u06be\u0646\u0627": 5104, "\u2581\u0679\u0644": 5105, "\u2581godly": 5106, "\u2581\u0645\u0636\u0627\u0645\u06cc\u0646": 5107, "\u25819.": 5108, "\u2581network": 5109, "\u2581\u062a\u0631\u06a9": 5110, "\u201d": 5111, "\u2581oil": 5112, "\u2581\u0622\u0641": 5113, "\u258114.": 5114, "\u2581leaving": 5115, "\u2581\u0628\u0691\u06be\u06d2": 5116, "\u2581\u062e\u0637\u0631\u06d2": 5117, "\u2581\u062f\u0627\u0646\u0634": 5118, "\u2581intended": 5119, "\u2581\u06cc\u06c1\u0648\u062f\u0627\u06c1": 5120, "\u258126": 5121, "\u2581\u062c\u06be\u06af\u0691\u06d2": 5122, "\u2581ascend": 5123, "\u2581laugh": 5124, "\u2581protectors": 5125, "\u2581requited": 5126, "\u2581\u0638\u0627\u06c1\u0631\u06cc": 5127, "\u2581\u0645\u063a\u0644\u0648\u0628": 5128, "\u2581abiding": 5129, "\u2581al": 5130, "\u2581books": 5131, "\u2581congregations": 5132, "\u2581ornaments": 5133, "\u2581successors": 5134, "\u2581\u0628\u06be\u0679\u06a9\u0627": 5135, "\u2581\u0645\u0644\u0627\u0632\u0645\u062a": 5136, "\u062d\u0642\u06cc\u0642\u062a": 5137, "\u2581covering": 5138, "\u2581drawn": 5139, "\u2581excuse": 5140, "\u2581pioneer": 5141, "\u2581steps": 5142, "\u2581\u062c\u0646\u0633\u06cc": 5143, "\u2581oppressed": 5144, "\u2581remains": 5145, "\u2581sitting": 5146, "\u2581tribes": 5147, "\u2581\u0622\u0632\u0645\u0627\u0626\u06d2": 5148, "\u2581\u062c\u0631\u0645": 5149, "\u2581\u0633\u06a9\u062a\u06d2\u06d4": 5150, "\u2581forces": 5151, "\u2581\u0686\u06cc\u062e": 5152, "\u0645\u0639\u062c\u0632\u06d2": 5153, "\u2581\u0628\u062a\u0627\u062a\u06d2": 5154, "\u2581\u0628\u062f\u0648\u0644\u062a": 5155, "\u2581\u0639\u062f\u0627\u0648\u062a": 5156, "\u2581\u06c1\u0646\u0633": 5157, "Would": 5158, "aun": 5159, "\u2581\u0628\u06c1\u06a9\u06d2": 5160, "\u2581\u067e\u06cc\u0645\u0627\u0646": 5161, "\u2581crime": 5162, "\u2581males": 5163, "\u2581permitted": 5164, "\u2581relate": 5165, "\u2581\u062f\u0648\u0632\u062e\u06cc": 5166, "\u2581\u067e\u0633\u0646\u062f\u06cc\u062f\u06c1": 5167, "\u2581\u06f4\u06f0": 5168, "\u062c\u0646": 5169, "\u2581giveth": 5170, "\u2581\u062f\u0644\u06cc\u0631\u06cc": 5171, "\u2581\u0641\u0631\u0645\u0627\u062a\u06d2": 5172, "what": 5173, "\u2581encompasse": 5174, "\u2581rock": 5175, "\u2581quickly": 5176, "\u2581bodies": 5177, "\u2581\u0627\u0646\u06a9\u06d2": 5178, "\u25815.": 5179, "\u2581Un": 5180, "\u2581drinking": 5181, "\u2581\u0622\u0646\u062f\u06be\u06cc": 5182, "\u2581\u0628\u062f\u0644\u0646\u06d2": 5183, "\u2581killing": 5184, "\u2581weakness": 5185, "\u2581\u0628\u06c1\u062a\u0631\u06cc": 5186, "\u2581\u062a\u06cc\u0632\u06cc": 5187, "\u2581\u0633\u0648\u0627\u0644\u0627\u062a": 5188, "\u2581beasts": 5189, "\u2581denies": 5190, "\u2581\u0627\u062f\u06be\u0631": 5191, "\u2581\u062a\u06cc\u0645": 5192, "\u2581\u067e\u06cc\u0648": 5193, "before": 5194, "\u2581denying": 5195, "\u2581occasion": 5196, "\u2581required": 5197, "\u2581stories": 5198, "\u2581States": 5199, "\u2581earthly": 5200, "\u2581receiving": 5201, "\u2581\u0646\u0627\u0631\u0627\u0636": 5202, "\u2581suffices": 5203, "\u2581\u0628\u0691\u06be\u0627\u067e\u06d2": 5204, "\u2581\u062d\u06cc\u062b\u06cc\u062a": 5205, "\u2581\u062f\u0631\u062e\u062a\u0648\u06ba": 5206, "\u0631\u062f\u06c1": 5207, "\u2581Proclaim": 5208, "\u2581\u0628\u0631\u06af\u0632\u06cc\u062f\u06c1": 5209, "\u2581\u062a\u0642\u0631\u06cc\u0631": 5210, "\u2581\u0633\u0648\u0686\u062a\u06d2": 5211, ",\u201d": 5212, "\u2581Hud": 5213, "\u2581dumb": 5214, "\u2581keeps": 5215, "\u0642\u062f\u0631\u062a": 5216, "\u2581reasons": 5217, "\u2581relations": 5218, "\u2581\u0628\u0646\u0627\u06cc\u0627\u06d4": 5219, "\u2581\u062e\u0632\u0627\u0646\u06c1": 5220, "\u2581\u0641\u0631\u0648\u063a": 5221, "Noah": 5222, "\u2581Majestic": 5223, "\u2581corn": 5224, "\u2581falls": 5225, "\u2581results": 5226, "\u2581\u0633\u0641\u0627\u0631\u0634\u06cc": 5227, "\u2581\u0648\u0644\u06cc": 5228, "\u2581\u06a9\u0631\u0648\u06af\u06d2": 5229, "\u2581\u0627\u06cc\u0646\u062f\u06be\u0646": 5230, "\u2581\u0641\u0627\u0626\u062f\u0647": 5231, "\u2581\u0646\u0637\u0641\u06c1": 5232, "\u2581deceived": 5233, "\u2581forgiven": 5234, "\u2581\u062a\u062d\u0641\u0638": 5235, "\u2581\u062e\u0637\u0627": 5236, "\u2581\u0686\u06be\u0648\u0679\u0627": 5237, "\u0648\u0642\u062a\u06cc": 5238, "\u2581magician": 5239, "\u2581seems": 5240, "\u2581trials": 5241, "\u2581\u0628\u0627\u062f\u0634\u0627\u06c1\u062a\u06cc": 5242, "\u2581pleasing": 5243, "Now": 5244, "\u2581activity": 5245, "\u2581helping": 5246, "\u2581humbled": 5247, "\u2581vast": 5248, "\u2581\u062a\u06cc\u0631": 5249, "\u2581\u0631\u062e\u0635\u062a": 5250, "\u2581\u0644\u0691\u06a9\u06cc\u0648\u06ba": 5251, "\u2581countries": 5252, "\u2581growth": 5253, "\u2581laden": 5254, "\u2581pilgrimage": 5255, "\u2581\u062f\u0631\u0648\u0627\u0632\u06c1": 5256, "\u2581\u0633\u06cc\u0646\u06c1": 5257, "\u2581\u06c1\u0627\u0646\u06a9": 5258, "\u2581Being": 5259, "\u2581Thereupon": 5260, "\u2581admonished": 5261, "Jehovah": 5262, "\u2581degrees": 5263, "\u2581include": 5264, "\u2581withhold": 5265, "\u2581\u06a9\u0631\u062f\u0648\u06ba": 5266, "\u2581agree": 5267, "\u2581celebrate": 5268, "\u2581directed": 5269, "\u2581didst": 5270, "\u2581grasp": 5271, "\u2581\u062a\u062d\u0631\u06cc\u0631": 5272, "\u2581hate": 5273, "\u2581loan": 5274, "\u2581\u0628\u0627\u0631\u06cc": 5275, "\u2581\u062f\u06be\u0648\u067e": 5276, "\u2581constant": 5277, "\u2581lack": 5278, "\u2581seemed": 5279, "\u2581\u062a\u0631\u062a\u06cc\u0628": 5280, "\u2581freedom": 5281, "\u2581game": 5282, "\u2581persist": 5283, "\u2581\u0627\u0646\u062f\u06be\u06cc\u0631": 5284, "\u2581\u062c\u0627\u0646\u0646\u0627": 5285, "\u0627\u06c1\u0644": 5286, "\u06cc\u06c1\u06cc": 5287, "\u258111.": 5288, "\u2581\u06a9\u0644\u0645\u06c1": 5289, "\u2581completed": 5290, "\u2581convinced": 5291, "\u2581exceed": 5292, "\u2581resort": 5293, "\u2581\u067e\u0631\u0648\u0627\u06c1": 5294, "\u2581Again": 5295, "\u2581\u0627\u062d\u0633\u0627\u0633\u0627\u062a": 5296, "\u2581\u0628\u0631\u0627\u06c1": 5297, "\u2581\u062f\u0627\u0646\u0627\u0626\u06cc": 5298, "\u2581\u0635\u0627\u0628\u0631": 5299, "\u2581\u06cc\u0648\u0633\u0641\u0611": 5300, "\u2581consume": 5301, "\u062d\u0642\u06cc\u0642\u06cc": 5302, "\u2581Whoso": 5303, "\u2581numerous": 5304, "\u2581united": 5305, "\u2581\u062c\u0648\u0691": 5306, "\u2581\u062c\u06be\u06a9\u06d2": 5307, "\u25cf": 5308, "Salat": 5309, "\u2581carrying": 5310, "\u2581\u06a9\u06be\u0691\u06cc": 5311, "\u258127": 5312, "\u2581rejoicing": 5313, "\u2581\u0644\u0627\u0626\u06cc": 5314, "\u06a9\u0628\u06be\u06cc": 5315, "\u2581becoming": 5316, "\u2581bore": 5317, "\u2581fulfillment": 5318, "....": 5319, "\u258128": 5320, "\u2581appropriate": 5321, "\u2581content": 5322, "\u2581\u0633\u0645\u0648\u0626\u06cc\u0644": 5323, "\u2581\u0645\u0633\u0626\u0644\u06c1": 5324, "too": 5325, "\u0648\u067e\u0631": 5326, "\u2581forsake": 5327, "\u2581\u0635": 5328, "\u2581\u0686\u06a9\u06be\u0627": 5329, "\u2581Moreover": 5330, "\u2581conscience": 5331, "\u2581crowd": 5332, "\u2581influence": 5333, "\u2581thine": 5334, "\u2581\u0688\u0631\u0627\u06cc\u0627": 5335, "\u258132": 5336, "\u2581Sabbath": 5337, "\u2581\u0628\u0627\u0646\u062f\u06be\u0627": 5338, "\u2581\u0639\u0632\u0645": 5339, "\u2581\u0644\u0691\u06a9\u06cc\u0627\u06ba": 5340, "\u06c1\u0645\u0627\u0631\u06cc": 5341, "\u06c1\u06cc\u06ba": 5342, "\u25813.": 5343, "\u2581differences": 5344, "\u2581mindful": 5345, "\u2581release": 5346, "\u2581Guidance": 5347, "\u2581reasonable": 5348, "\u2581watching": 5349, "\u2581\u0645\u0631\u0646\u0627": 5350, "\u2581\u06a9\u0627\u0631\u0648\u0628\u0627\u0631": 5351, "\u2581advantage": 5352, "\u2581\u0622\u062c\u0627\u0646\u06d2": 5353, "\u2581\u062f\u06be\u0648\u06a9\u0627": 5354, "\u2581\u067e\u0648\u0686\u06be\u06d2": 5355, "\u2581\u06a9\u0631\u064a\u06ba": 5356, "if": 5357, "\u258129": 5358, "\u2581challenge": 5359, "\u2581role": 5360, "\u2581\u0645\u0646\u0627\u0641\u0642\u06cc\u0646": 5361, "\u2581Ad": 5362, "\u2581distance": 5363, "\u2581fuel": 5364, "\u2581listened": 5365, "\u2581\u067e\u0644\u0679\u0646": 5366, "\u2581....": 5367, "\u2581grants": 5368, "\u2581humbly": 5369, "\u2581\u0627\u0691\u0627": 5370, "\u2581race": 5371, "\u2581\u062a\u0627\u0628\u0639\u062f\u0627\u0631\u06cc": 5372, "\u2581\u0644\u067e\u0679": 5373, "\u258131": 5374, "\u2581Also": 5375, "\u2581guests": 5376, "\u2581requite": 5377, "\u2581\u0633\u062a\u0627\u0631\u06d2": 5378, "\u2581appointment": 5379, "\u2581cup": 5380, "\u2581\u0637\u0631\u06cc\u0642": 5381, "\u0627\u0626\u06cc": 5382, "\u2581understood": 5383, "\u2581workers": 5384, "\u2581psalmist": 5385, "\u2581trustworthy": 5386, "\u2581\u0628\u06cc\u0679\u06be\u0627": 5387, "\u2581\u062a\u0644\u06d2": 5388, "\u062b\u0631": 5389, "\u2581Jeremiah": 5390, "\u2581Jewish": 5391, "\u2581adorned": 5392, "\u2581chooses": 5393, "\u2581regret": 5394, "\u2581writing": 5395, "\u2581\u067e\u06c1\u0646\u0686\u0627\u062a\u0627": 5396, "\u2581\u06a9\u0631\u062a\u0627\u06d4": 5397, "\u258115,": 5398, "\u2581breast": 5399, "\u2581text": 5400, "\u2581\u0627\u0648\u0644": 5401, "\u2581\u0628\u062a\u0627\u0626\u06cc\u06ba": 5402, "\u2581\u062f\u0641\u062a\u0631": 5403, "\u2581\u06cc": 5404, "\u06a9\u0634\u062a\u06cc\u0627\u06ba": 5405, "\u2581blazing": 5406, "\u2581described": 5407, "\u2581report": 5408, "\u2581\u0628\u0627\u0634\u0646\u062f\u0648\u06ba": 5409, "\u2581\u0645\u064a\u06ba": 5410, "\u2581\u0686\u0645\u06a9\u062a\u0627": 5411, "\u0627\u06cc\u0633\u06cc": 5412, "\u0645\u0648\u0633": 5413, "\u2581beginning": 5414, "\u2581step": 5415, "\u2581\u0646\u0627\u06af\u0648\u0627\u0631": 5416, "\u0628\u0627\u0642\u0627\u0639\u062f\u06c1": 5417, "\u2581Ah": 5418, "\u2581struggle": 5419, "\u2581thousands": 5420, "\u2581\u062a\u0631\u062c\u06cc\u062d": 5421, "\u258113.": 5422, "\u2581Recall": 5423, "\u2581deluded": 5424, "\u2581witnessed": 5425, "\u2581\u0636\u0645\u06cc\u0631": 5426, "\u2581\u0641\u0631\u0634": 5427, "\u2581\u06a9\u0631\u0633\u06a9\u0648": 5428, "\u2581bar": 5429, "\u2581greeting": 5430, "\u2581misled": 5431, "when": 5432, "\u2581Hebrew": 5433, "\u2581begotten": 5434, "\u2581grew": 5435, "\u2581priests": 5436, "\u2581ride": 5437, "\u2581\u062d\u0627\u0636\u0631\u06cc": 5438, "\u2581\u0645\u0634\u06c1\u0648\u0631": 5439, "\u2581\u0645\u06a9\u0627": 5440, "\u2581\u067e\u0648\u0634\u06cc\u062f\u0647": 5441, "\u2581innocent": 5442, "\u2581opposition": 5443, "\u2581sometimes": 5444, "\u2581\u063a\u0627\u0631\u062a": 5445, "\u2581\u0645\u062e\u0641\u06cc": 5446, "\u2581\u06c1\u0644\u0627": 5447, "L": 5448, "\u2581learning": 5449, "\u2581\u0631\u0634\u062a\u06d2": 5450, "\u2581\u0633\u0646\u0627\u062a\u0627": 5451, "\u25816.": 5452, "\u2581Power": 5453, "\u2581judged": 5454, "\u2581temptation": 5455, "\u2581\u06af\u0648\u0627": 5456, "\u2581putt": 5457, "\u2581\u0627\u0645\u06cc\u062f\u0648\u0627\u0631": 5458, "\u2581\u0628\u06c1\u0631": 5459, "\u2581\u0633\u0646\u06af\u06cc\u0646": 5460, "\u2581\u0645\u062a\u06a9\u0628\u0631": 5461, "\u2581\u0645\u06cc\u0631\u0627\u062b": 5462, "\u2581\u0646\u0638\u0631\u06cc\u06c1": 5463, "\u0679\u06be\u0627\u0646\u06d2": 5464, "\u2581\u0631\u063a\u0628\u062a": 5465, "\u2581\u0645\u0641\u06cc\u062f": 5466, "ad": 5467, "\u2581Thereafter": 5468, "\u2581dies": 5469, "\u2581latter": 5470, "\u2581\u06c1\u0648\u0626\u06cc\u06ba": 5471, "\u2581Eve": 5472, "\u2581prevail": 5473, "\u2581\u0642\u062f\u0645\u0648\u06ba": 5474, "\u2581precious": 5475, "\u2581selves": 5476, "\u2581\u0634\u0627\u0639\u0631": 5477, "\u2581\u0647\u06d2": 5478, "\u2581bliss": 5479, "\u2581\u062a\u0645\u0646\u0627": 5480, "\u2581\u06a9\u0634": 5481, "\u2581intercede": 5482, "\u2581welcome": 5483, "\u2581\u0631\u0648\u0628\u0631\u0648": 5484, "\u2581\u0645\u0646\u0638\u0631": 5485, "\u2581Another": 5486, "\u2581acted": 5487, "\u2581befell": 5488, "\u2581students": 5489, "\u2581\u0628\u0646\u062f\u0648": 5490, "\u2581\u0645\u0627\u062d\u0648\u0644": 5491, "\u2581harmony": 5492, "\u2581slew": 5493, "\u2581\u0627\u0691\u0627\u06cc\u0627": 5494, "\u2581Self": 5495, "\u2581positive": 5496, "\u2581\u0688\u0631\u0627\u0626\u06cc\u06ba": 5497, "\u062a\u0645\u06c1\u0627\u0631\u06cc": 5498, "\u0646\u0628\u06cc": 5499, "\u2581outside": 5500, "\u2581sell": 5501, "\u2581\u062c\u0646\u062a\u06cc\u06ba": 5502, "\u0637\u0631\u062d": 5503, "\u2581dreadful": 5504, "\u2581uses": 5505, "\u2581blast": 5506, "\u2581\u0644\u0691\u06a9\u0648\u06ba": 5507, "\u2581Remembrance": 5508, "\u2581assist": 5509, "\u2581likewise": 5510, "\u2581transgressed": 5511, "\u258117.": 5512, "\u2581About": 5513, "\u2581\u062a\u06cc\u0644": 5514, "\u2581holds": 5515, "\u2581succour": 5516, "\u2581wax": 5517, "\u2581wrongfully": 5518, "\u2581denial": 5519, "\u2581\u0627\u06af\u0644\u06cc": 5520, "\u2581\u062a\u0634\u0631\u06cc\u0641": 5521, "\u2581\u0639\u0632": 5522, "\u2581\u0648\u0631\u0688": 5523, "\u2581corrupt": 5524, "\u2581\u0628\u0627\u0642\u0627\u0639\u062f": 5525, "\u2581\u062a\u06a9\u06cc\u06c1": 5526, "\u2581across": 5527, "\u2581describe": 5528, "\u2581\u0646\u0638\u0631\u0627\u0646\u062f\u0627\u0632": 5529, "\u06a9\u0627\u0631\u062a": 5530, "\u2581beauty": 5531, "\u2581natural": 5532, "\u2581victorious": 5533, "\u2581\u06a9\u0631\u062a\u06d2\u06d4": 5534, "\u2581training": 5535, "\u2581\u0644\u0627\u0644\u0686": 5536, "\u2581\u0646\u0635\u0631\u062a": 5537, "\u258115.": 5538, "\u2581committing": 5539, "\u2581intercessors": 5540, "\u2581\u0628\u0631\u0633\u0627": 5541, "\u2581\u0642\u0627\u0641\u0644": 5542, "\u2581\u0645\u0633\u0644\u0633\u0644": 5543, "\u2581\u06af\u0627\u0691\u06cc": 5544, "\u062c\u062d\u0627\u0646": 5545, "\u2581Its": 5546, "\u2581abandon": 5547, "\u2581prostration": 5548, "\u2581\u06c1\u0648\u0686\u06a9\u06cc": 5549, "\u258116.": 5550, "\u2581Credit": 5551, "\u2581deeply": 5552, "\u2581praying": 5553, "\u2581\u0645\u0639\u0645\u0648\u0644\u06cc": 5554, "\u2581\u0645\u0648\u0636\u0648\u0639": 5555, "\u2581\u06a9\u06be\u0627\u06cc\u0627": 5556, "be": 5557, "\u2581\u063a\u0646\u06cc": 5558, "\u2581\u0645\u0641\u0633\u062f": 5559, "\u062a\u0648\u0631\u0627\u06c3": 5560, "\u063a\u0644\u06c1": 5561, "\u2581Others": 5562, "\u2581guarded": 5563, "\u2581\u0627\u06a9\u06cc\u0644\u06d2": 5564, "\u2581\u0628\u06c1\u06a9": 5565, "\u2581\u0645\u0634\u0646\u0631\u06cc": 5566, "\u2581\u067e\u06c1\u0646\u0686\u0627\u062a\u06d2": 5567, "\u2581\u06af\u0631\u0648\u0647": 5568, "\u2581Help": 5569, "\u2581\u0622\u067e\u06a9\u06d2": 5570, "\u2581\u0636\u0631\u0631": 5571, "\u2581\u0645\u0648\u0632\u0648\u06ba": 5572, "\u2581\u0648\u06cc": 5573, "ful": 5574, "\u25818,": 5575, "\u25818:": 5576, "\u2581store": 5577, "\u2581\u0628\u0631\u062f\u0628\u0627\u0631": 5578, "\u2581\u0628\u06cc\u06c1\u0648\u062f\u06c1": 5579, "\u2581\u067e\u0627\u0644\u0646\u06d2": 5580, "\u2581\u06af\u06c1\u0631\u0627": 5581, "\u0627\u0632\u0627\u06ba": 5582, "\u06a9\u0628\u06be\u0627\u0631": 5583, "\u2581\u0633\u0627\u0626\u06d2": 5584, "\u2581\u0646\u06a9\u0627\u0644\u06cc": 5585, "\u2581Praiseworthy": 5586, "\u2581\u0628\u06a9\u0631\u06cc": 5587, "\u0627\u0633\u0631\u0627\u0626\u06cc\u0644": 5588, "\u2581endowed": 5589, "\u2581foretold": 5590, "\u2581usury": 5591, "\u2581\u062c\u0627\u0633\u06a9\u062a\u0627": 5592, "\u2581accounts": 5593, "\u2581greatly": 5594, "\u2581moment": 5595, "\u2581published": 5596, "\u2581remind": 5597, "\u2581\u0627\u0646\u06a9\u06cc": 5598, "\u2581\u062e\u0631\u0648": 5599, "\u2581\u06c1\u0627\u0631": 5600, "\u2581East": 5601, "\u2581niggardly": 5602, "\u2581reality": 5603, "\u2581\u0627\u0645\u062f\u0627\u062f": 5604, "\u2581\u062e\u0627\u062a\u0645\u06c1": 5605, "\u2581\u0646\u0627\u062f\u0627\u0646": 5606, "\u2581\u067e\u0627\u0631": 5607, "\u2581develop": 5608, "\u2581rage": 5609, "\u2581re": 5610, "\u2581sickness": 5611, "\u2581warners": 5612, "\u2581\u0622\u0628\u0627\u062f\u06cc": 5613, "\u2581\u0628\u062f\u0646": 5614, "\u2581\u06a9\u06cc\u062a\u06be\u0648\u0644\u06a9": 5615, "\u2581\u06af\u06c1\u0631\u06cc": 5616, "\u2581\u06c1\u062a\u06be\u06cc\u0627\u0631": 5617, "u": 5618, "\u2581depart": 5619, "\u2581legal": 5620, "\u2581waters": 5621, "\u2581\u062c\u0627\u0626\u06cc\u06ba\u06d4": 5622, "\u06af\u0632\u0634\u062a\u06c1": 5623, "\u2581\u0622\u0645\u0627\u062f": 5624, "\u2581\u0627\u0628\u062a\u062f\u0627\u0626\u06cc": 5625, "\u2581\u0688\u06be\u0627\u0646\u067e": 5626, "\u2581\u06c1\u0648\u062c\u0627": 5627, "which": 5628, "\u2581feeding": 5629, "\u2581\u0639\u062f\u0627\u0644\u062a": 5630, "\u258115:": 5631, "\u2581dislike": 5632, "\u2581fearful": 5633, "\u2581length": 5634, "\u2581stray": 5635, "\u2581\u0641\u06c1\u0631\u0633\u062a": 5636, "\u2581\u0646\u06cc\u06a9\u06cc\u0648\u06ba": 5637, "\u2581\u06af\u06be\u0633": 5638, "\u2581encompassed": 5639, "upon": 5640, "\u0645\u0648\u0633\u06cc": 5641, "\u2581causing": 5642, "\u2581dedicated": 5643, "\u2581outcome": 5644, "\u2581\u062f\u06be\u0646\u0633\u0627": 5645, "\u2581\u0631\u067e\u0648\u0631\u0679": 5646, "\u2581\u0645\u0646\u062a\u0642\u0644": 5647, "\u2581\u0646\u0630\u0631": 5648, "\u2581\u0646\u06af\u0631\u0627\u0646\u06cc": 5649, "Hell": 5650, "man": 5651, "\u0627\u0648\u0642\u0627\u062a": 5652, "\u2581modern": 5653, "\u2581smite": 5654, "\u2581\u0627\u0639\u0631\u0627": 5655, "\u2581\u062c\u06c1\u0627\u0632": 5656, "\u2581\u0646\u0635\u0631\u0627\u0646\u06cc": 5657, "\u2581\u06a9\u0641\u0627": 5658, "\u0686\u0644\u0646": 5659, "\u06a9\u06cc\u0648\u0646\u06a9\u06c1": 5660, "\u2581Hand": 5661, "\u2581altogether": 5662, "\u2581drew": 5663, "\u2581heels": 5664, "\u2581\u0627\u0646\u0628\u06cc\u0627\u0621": 5665, "\u2581\u0645\u0646\u06a9\u0631\u06cc\u0646": 5666, "\u2581\u06a9\u06be\u0648\u0644\u062a": 5667, "\u0641\u0631\u0634\u062a\u06d2": 5668, "\u0645\u0633\u0644\u0637": 5669, "\u2581Firaun": 5670, "\u2581appreciation": 5671, "\u2581\u062d\u0635": 5672, "\u2581\u0632": 5673, "\u2581\u0632\u06cc\u0648\u0631": 5674, "\u2581\u0644\u06cc\u062a\u06cc": 5675, "Joseph": 5676, "\u2581hair": 5677, "\u2581intend": 5678, "\u2581mockery": 5679, "\u2581obeys": 5680, "\u2581\u062f\u0631\u0648\u0627\u0632": 5681, "\u2581\u0642\u0631\u0628": 5682, "\u2581\u0644\u0645\u0628\u06cc": 5683, "\u2581\u06a9\u06be\u0648\u0644\u06cc\u06ba": 5684, "\u2581camel": 5685, "\u2581humiliation": 5686, "\u2581persevere": 5687, "\u2581\u0628\u0639\u06cc\u062f": 5688, "\u258140": 5689, "\u2581opinion": 5690, "\u2581\u067e\u06cc\u0633\u06d2": 5691, "\u2581\u0633\u06cc\u06a9\u06be\u0646\u06d2": 5692, "\u2581\u0644\u0648\u0646\u0688\u06cc": 5693, "\u2581loose": 5694, "\u2581restored": 5695, "\u2581trade": 5696, "\u2581verse": 5697, "\u2581girl": 5698, "\u2581lightning": 5699, "\u2581ponder": 5700, "\u2581\u0628\u0644\u0627\u0646\u06d2": 5701, "\u2581\u0645\u0627\u0631\u062a\u06d2": 5702, "\u2581\u06af\u0644\u062a\u06cc": 5703, "\u2581correct": 5704, "\u2581insolent": 5705, "\u2581inspiration": 5706, "\u2581\u0639\u0644\u0627\u0645\u062a": 5707, "\u2581\u06a9\u0634\u062a\u06cc\u0648\u06ba": 5708, "\u2581\u06c1\u0627\u0645\u0627\u0646": 5709, "\u2581numbers": 5710, "\u2581preserve": 5711, "\u2581\u0628\u0627\u0646\u062f\u06be\u062a": 5712, "\u2581\u0628\u0648\u0644\u06cc": 5713, "\u2581\u0631\u06cc\u0634\u0645": 5714, "\u2581\u0633\u0644\u0633\u0644\u06c1": 5715, "\u2581\u06af\u0632\u0631\u0627": 5716, "\u0644\u0642\u062f\u0633": 5717, "\u2581Roman": 5718, "\u2581VPN": 5719, "\u2581cave": 5720, "\u2581\u0628\u0633\u0631": 5721, "\u2581\u062e\u0648\u0634\u0646\u0645\u0627": 5722, "Eat": 5723, "\u2581Aye": 5724, "\u2581feeling": 5725, "\u2581inclined": 5726, "\u2581restrain": 5727, "\u2581\u062f\u0646\u06cc\u0627\u0648\u06cc": 5728, "\u2581\u0648\u0627\u062c\u0628": 5729, "\u0644\u0645\u0627\u062a": 5730, "\u2581concerned": 5731, "\u2581current": 5732, "\u2581selected": 5733, "\u2581\u0628\u0627\u0632\u06cc": 5734, "\u2581\u0633\u0631\u0648\u06ba": 5735, "\u2581\u0644\u06a9\u06be\u0646\u06d2": 5736, "\u2581broken": 5737, "\u2581debt": 5738, "\u2581delay": 5739, "\u2581urge": 5740, "\u2581\u0639\u0644\u06cc\u0645": 5741, "\u2581plants": 5742, "\u2581seeks": 5743, "\u2581\u0645\u0634\u063a\u0648\u0644": 5744, "en": 5745, "\u06cc\u0648\u0633\u0641": 5746, "\u2581chief": 5747, "\u2581job": 5748, "\u2581specified": 5749, "\u2581\u0641\u0631\u0648\u062e\u062a": 5750, "\u2581\u0648\u062c\u0648\u06c1\u0627\u062a": 5751, "\u2581\u06af\u0645\u0631\u0627\u06c1\u0648\u06ba": 5752, "\u2581genuine": 5753, "\u2581preceded": 5754, "\u2581Light": 5755, "\u2581encourage": 5756, "\u2581listening": 5757, "\u2581stern": 5758, "\u2581\u0628\u06cc\u0679\u06cc\u0648\u06ba": 5759, "\u2581\u0633\u06cc\u06a9\u06be\u0627": 5760, "\u2581baptism": 5761, "\u2581guile": 5762, "\u2581veil": 5763, "\u2581\u062a\u06a9\u0645\u06cc\u0644": 5764, "\u2581\u0648\u0639\u062f\u0648\u06ba": 5765, "P": 5766, "\u2581undoubtedly": 5767, "\u2581accepts": 5768, "\u2581basis": 5769, "\u2581daily": 5770, "\u2581plotted": 5771, "\u2581quite": 5772, "\u2581\u0679\u06be\u0646\u0688\u06cc": 5773, "\u06cc\u06d2": 5774, "\u2581commandments": 5775, "\u2581dog": 5776, "\u2581miracle": 5777, "\u2581weigh": 5778, "\u2581\u062a\u0628\u0644\u06cc\u063a": 5779, "\u2581\u06a9\u06be\u0644\u0645": 5780, "\u2581Mark": 5781, "\u2581afterwards": 5782, "\u2581quality": 5783, "\u2581revert": 5784, "\u2581superior": 5785, "\u062f\u06cc\u06ba": 5786, "\u2581enduring": 5787, "\u2581necessary": 5788, "\u2581prostrated": 5789, "\u2581\u0628\u0646\u06cc\u06ba": 5790, "\u2581\u0633\u0631\u06af\u0648\u0634\u06cc": 5791, "\u2581\u06c1\u0688\u06cc\u0648\u06ba": 5792, "\u0626\u06cc\u06ba": 5793, "\u2581Sufficient": 5794, "\u2581Supreme": 5795, "\u2581pearls": 5796, "\u2581pour": 5797, "\u2581shameful": 5798, "\u2581\u062a\u06cc\u0627\u0631\u06cc": 5799, "\u2581\u062a\u06cc\u0633\u0631": 5800, "\u2581\u0633\u0648\u0627\u0631\u06cc": 5801, "\u2581\u06af\u0627\u0624\u06ba": 5802, "\u25813,": 5803, "\u2581languages": 5804, "\u2581wickedness": 5805, "\u2581\u067e\u06be\u0631\u06cc\u06ba": 5806, "\u2581bond": 5807, "\u2581compassion": 5808, "\u2581twelve": 5809, "\u2581\u0627\u0639\u0645\u0627": 5810, "\u0631\u0628": 5811, "\u2581bird": 5812, "\u2581condemned": 5813, "\u2581flight": 5814, "\u2581mates": 5815, "\u2581negative": 5816, "Alone": 5817, "scribed": 5818, "\u062f\u0648\u0646\u0648\u06ba": 5819, "\u0648\u06af\u0631\u062f\u0627\u0646": 5820, "\u2581branch": 5821, "\u2581desiring": 5822, "\u2581disaster": 5823, "\u2581faced": 5824, "\u2581\u0628\u06be\u06cc\u062c\u0646\u06d2": 5825, "\u2581\u0639\u0645\u0631\u0631\u0633\u06cc\u062f": 5826, "\u2581\u0645\u0642\u0627\u0645\u06cc": 5827, "\u2581\u0688\u06be\u0627\u0646\u06a9": 5828, "\u2581\u06a9\u0631\u062a\u0648\u062a\u0648\u06ba": 5829, "\u2581Ya": 5830, "\u2581\u0622\u067e\u06c1\u0646\u0686\u0627": 5831, "\u2581\u0628\u0631\u06a9\u0627\u062a": 5832, "\u2581\u0686\u06a9\u06be\u0646": 5833, "\u2581Midian": 5834, "\u2581plans": 5835, "\u2581\u062a\u06c1\u06c1": 5836, "\u2581\u0631\u0648\u0679\u06cc": 5837, "\u2581\u0686\u06be\u0679": 5838, "\u2581\u06cc\u0633": 5839, "Call": 5840, "]?": 5841, "\u0627\u0644": 5842, "\u2581Companions": 5843, "\u2581Nothing": 5844, "\u2581wander": 5845, "\u2581\u0633\u0648\u0644\u06cc": 5846, "\u2581oppose": 5847, "\u2581plead": 5848, "\u2581\u062d\u0642\u06cc\u0631": 5849, "\u2581\u0648\u0632\u0646": 5850, "\u2581\u067e\u06c1\u0646\u0686\u06cc\u06ba": 5851, "\u2581Words": 5852, "\u2581\u0634": 5853, "\u2581\u067e\u0644\u0627\u06cc\u0627": 5854, "\u2581\u06a9\u0648\u0646\u0633\u06d2": 5855, "\u2581angry": 5856, "\u2581camels": 5857, "\u2581distant": 5858, "\u2581facing": 5859, "awn": 5860, "\u2581settle": 5861, "\u2581\u062f\u0633\u062a\u06cc\u0627\u0628": 5862, "\u2581favoured": 5863, "\u2581fortune": 5864, "\u2581\u0622\u0648\u0631": 5865, "\u2581\u0628\u062f\u0644\u0627": 5866, "\u2581\u062a\u0631\u063a\u06cc\u0628": 5867, "\u2581\u067e\u06cc\u0686\u06be\u0627": 5868, "\u2581eternal": 5869, "\u2581millions": 5870, "\u2581pressure": 5871, "\u2581\u0644\u0691\u0646\u06d2": 5872, "\u2581Open": 5873, "\u2581carefully": 5874, "\u2581prepare": 5875, "\u2581\u0644\u0648\u06ba": 5876, "\u2581Makkah": 5877, "\u2581afterward": 5878, "\u2581scripture": 5879, "\u2581\u0644\u0691\u06cc\u06ba": 5880, "\u2581\u0645\u0642\u062f\u0648\u0631": 5881, "\u062c\u0627\u0646\u06d2": 5882, "\u2581intends": 5883, "\u2581\u062d\u06cc\u0631\u062a": 5884, "\u2581\u062e\u0648\u0634\u06af\u0648\u0627\u0631": 5885, "\u2581\u0639\u0628\u0631\u0627\u0646\u06cc": 5886, "\u2581\u0646\u06cc\u062a": 5887, "\u0646\u0648\u06cc\u0633": 5888, "\u06cc\u0634\u06af\u06cc": 5889, "\u2581West": 5890, "\u2581acceptable": 5891, "\u2581caravan": 5892, "\u2581charged": 5893, "\u2581\u0301": 5894, "\u2581\u0645\u06cc\u0627\u06ba": 5895, "\u2581\u0688\u06be\u06cc\u0631": 5896, "\u2581\u06a9\u0634\u0627\u062f": 5897, "2": 5898, "\u0631\u0627\u0626\u06cc": 5899, "\u2581level": 5900, "\u2581surrendered": 5901, "\u2581tears": 5902, "\u2581warm": 5903, "\u2581\u0628\u0627\u0628\u0644": 5904, "\u0628\u06be\u0627\u0644": 5905, "\u2581below": 5906, "\u2581expression": 5907, "\u2581\u0627\u0630\u0646": 5908, "\u2581\u062a\u0634\u062f\u062f": 5909, "\u2581\u0645\u062c\u0644\u0633": 5910, "\u2581\u067e\u06cc\u062a\u06d2": 5911, "\u2581Trumpet": 5912, "\u2581hypocrisy": 5913, "\u2581relative": 5914, "\u2581\u062e\u0648\u0641\u0632\u062f\u06c1": 5915, "\u2581\u0646\u0627\u062e\u0648\u0634": 5916, "Remember": 5917, "ation": 5918, "\u0631\u062f\u0648": 5919, "\u2581reform": 5920, "\u2581\u0632\u0627\u0626\u062f": 5921, "\u2581\u06f4\u06f4": 5922, "\u0642\u062f\u0633": 5923, "\u2581clothing": 5924, "\u2581rescue": 5925, "\u2581worldwide": 5926, "\u2581\u0628\u0686\u067e\u0646": 5927, "\u2581\u062a\u0631\u0627\u0632\u0648": 5928, "\u2581\u0686\u06be\u06cc\u0646": 5929, "\u0645\u062a": 5930, "\u2581Assuredly": 5931, "\u2581gifts": 5932, "\u2581owners": 5933, "\u2581yellow": 5934, "\u2581\u062a\u0639\u0638\u06cc\u0645": 5935, "\u2581\u062f\u0631\u06a9\u0627\u0631": 5936, "\u2581\u0631\u0627\u062d\u062a": 5937, "\u2581amount": 5938, "\u2581entrusted": 5939, "\u2581forced": 5940, "\u2581idea": 5941, "\u2581\u062a\u0641\u0631\u06cc\u062d": 5942, "\u2581\u0633\u067e\u0631\u062f": 5943, "\u2581assembly": 5944, "\u2581mouth": 5945, "\u2581\u0627\u0628\u062a\u062f\u0627": 5946, "\u2581\u062a\u062c\u0648\u06cc\u0632": 5947, "\u2581\u062f\u0641\u0639": 5948, "\u2581\u06a9\u0631\u0633\u06a9\u06cc\u06ba": 5949, "\u2581\u0645\u0646\u0638\u0648\u0631": 5950, "\u0642\u062f\u0631": 5951, "\u2581Line": 5952, "\u2581Over": 5953, "\u2581chance": 5954, "\u2581contain": 5955, "\u2581cow": 5956, "\u2581tasted": 5957, "\u2581\u0631\u0627\u0628\u0637\u06c1": 5958, "\u2581\u0631\u0641\u0627\u0642\u062a": 5959, "\u2581\u0644\u0648\u0679\u0646\u0627": 5960, "\u2581\u0645\u0646\u0641\u06cc": 5961, "up": 5962, "\u2581conjecture": 5963, "\u2581faults": 5964, "\u2581freely": 5965, "\u2581likes": 5966, "\u2581render": 5967, "\u2581\u0628\u063a\u0627\u0648\u062a": 5968, "\u2581\u062a\u06c1\u0627\u0626\u06cc": 5969, "\u2581\u0633\u0646\u0627\u0624": 5970, "\u2581\u0645\u0639\u0627\u06c1\u062f\u06c1": 5971, "\u2581lamp": 5972, "\u2581\u0628\u062a\u0627\u0626\u06cc": 5973, "\u0628\u06be\u0631": 5974, "\u0691\u0646\u06d2": 5975, "\u2581education": 5976, "\u2581higher": 5977, "\u2581rights": 5978, "\u2581\u0628\u062f\u062a\u0631": 5979, "\u2581\u0628\u06cc\u062c": 5980, "\u2581\u0639\u0628\u0631": 5981, "\u2581\u0645\u0639\u0632\u0632": 5982, "\u0628\u06a9\u062b\u0631\u062a": 5983, "\u062f\u0648\u06ba": 5984, "\u2581nearest": 5985, "\u2581withdraw": 5986, "\u2581\u0644\u0627\u06a9\u06be\u0648\u06ba": 5987, "\u2581Punishment": 5988, "\u2581contains": 5989, "\u2581sincerely": 5990, "\u2581\u0627\u0633\u062a\u062b\u0646\u0627": 5991, "\u2581\u062e\u062f\u0645\u062a\u06af\u0632\u0627\u0631\u06cc": 5992, "\u2581\u062f\u0639\u0648": 5993, "ung": 5994, "\u2581aversion": 5995, "\u2581extend": 5996, "\u2581relief": 5997, "\u2581\u0628\u062a\u0644\u0627": 5998, "\u0610": 5999, "\u0644\u06cc\u06a9\u0646": 6000, "\u2581Alif": 6001, "\u2581ark": 6002, "\u2581constantly": 6003, "\u2581\u0627\u0635\u0644\u06cc": 6004, "\u2581\u062f\u0627\u0646\u06d2": 6005, "\u2581\u0645\u0631\u062a\u06d2": 6006, "\u2581\u0646\u062f\u0627": 6007, "\u2581\u0688\u06cc": 6008, "\u0633\u062c\u062f\u0647": 6009, "\u2581\u0628\u06be\u0627\u06af\u06d2": 6010, "\u2581\u0645\u0634\u062a\u0645\u0644": 6011, "\u2581\u0646\u0627\u0627\u0645\u06cc\u062f": 6012, "\u2581Haman": 6013, "\u2581sport": 6014, "\u2581\u0627\u06a9\u06cc\u0644\u0627": 6015, "\u2581\u0628\u06cc\u0679\u06be\u06cc\u06ba": 6016, "\u2581\u0634\u0648\u0642": 6017, "\u0646\u0633\u0627\u0646": 6018, "\u2581bid": 6019, "\u2581demand": 6020, "\u2581office": 6021, "\u2581\u0645\u0691": 6022, "\u2581\u06a9\u06be\u0627\u0626\u06cc": 6023, "\u2581adds": 6024, "\u2581focus": 6025, "\u2581vegetation": 6026, "\u2581whence": 6027, "\u2581\u06a9\u0627\u0641\u0631\u0648": 6028, "\u2581\u06a9\u0634\u06cc": 6029, "\u258150": 6030, "\u2581Later": 6031, "\u2581Turn": 6032, "\u2581contact": 6033, "\u2581non": 6034, "\u2581regarded": 6035, "\u2581Judah": 6036, "\u2581fled": 6037, "\u2581ignore": 6038, "\u2581imperfect": 6039, "\u2581keepers": 6040, "\u2581neglected": 6041, "\u2581performed": 6042, "\u2581\u0633\u0627\u0632": 6043, "\u2581\u0686\u0648\u0631": 6044, "\u2581\u0622\u0626\u06d2\u06d4": 6045, "\u2581\u0645\u0636": 6046, "\u2581distinction": 6047, "\u2581\u0627\u062e\u0644\u0627\u0642\u06cc": 6048, "\u2581\u0627\u0646\u06be\u06cc\u06ba": 6049, "\u2581\u0633\u0648\u0686\u0646\u06d2": 6050, "\u0628\u0644\u06a9\u06c1": 6051, "\u2581adultery": 6052, "\u2581livelihood": 6053, "\u2581\u0622\u0646": 6054, "\u2581\u06c1\u0648\u0646\u06cc": 6055, "\ufd3e": 6056, "\u2581Box": 6057, "\u2581accurate": 6058, "\u2581\u062f\u0631\u06cc\u0627\u0624\u06ba": 6059, "\u2581\u0633\u0627\u0646\u067e": 6060, "ting": 6061, "\u2581canst": 6062, "\u2581east": 6063, "\u2581village": 6064, "\u2581\u0627\u0646\u062a\u06c1\u0627": 6065, "\u2581\u0644\u06a9\u06be\u062a\u06d2": 6066, "\u2581Blaze": 6067, "\u2581Ra": 6068, "\u2581kin": 6069, "\u2581rescued": 6070, "\u2581reveals": 6071, "\u2581\u0622\u0645\u062f": 6072, "\u2581\u062a\u06c1\u0645\u062a": 6073, "\u2581\u0645\u0627\u0644\u06cc": 6074, "\u2581YOU": 6075, "\u2581flocks": 6076, "\u2581mark": 6077, "\u2581\u0628\u062e\u062a": 6078, "\u2581\u0628\u0686\u0627\u0644\u06cc\u0627": 6079, "\u2581\u0637": 6080, "\u2581\u063a\u0641\u0648\u0631": 6081, "\u2581\u0645\u0648\u0646\u06c1\u0648\u06ba": 6082, "\u2581\u0645\u06a9\u0627\u0646\u0627\u062a": 6083, "\u2581\u067e\u06be\u0648\u0679": 6084, "ier": 6085, "\u2581U": 6086, "\u2581arms": 6087, "\u2581knowingly": 6088, "\u2581\u062d\u0642\u0648\u0642": 6089, "\u2581\u0645\u06cc\u0646\u0627\u0631": 6090, "\u2581\u0686\u0644\u0627\u062a\u0627": 6091, "\u0644\u06cc\u06a9\u0631": 6092, "\u2581Create": 6093, "\u2581examine": 6094, "\u2581fashioned": 6095, "\u2581\u0628\u0686\u0627\u0624": 6096, "\u0645\u0642\u0631\u0631": 6097, "\u2581contrary": 6098, "\u2581conversation": 6099, "\u2581general": 6100, "\u2581repaid": 6101, "\u2581simple": 6102, "\u2581\u0628\u06cc\u0646\u0627": 6103, "\u0628\u0686\u06be\u0691\u06d2": 6104, "\u0646\u06af\u06c1\u0628\u0627\u0646\u06cc": 6105, "\u25811.": 6106, "\u2581proclaimed": 6107, "\u2581\u0635\u062f\u0627\u0642\u062a": 6108, "\u2581\u06af\u06be\u0648\u0691\u06d2": 6109, "these": 6110, "\u0639\u0645\u0627\u0644": 6111, "\u2581encouraged": 6112, "\u2581lean": 6113, "\u2581\u062d\u0642\u062f\u0627\u0631": 6114, "\u2581\u0644\u0627\u06a9\u06be": 6115, "\u2581\u06f3\u06f6": 6116, "\u0646\u06c1\u06cc": 6117, "\u2581assignment": 6118, "\u2581flame": 6119, "\u2581rests": 6120, "\u2581\u0641\u062e\u0631": 6121, "\u2581\u067e\u06c1\u0686\u0627\u0646\u062a": 6122, ")],": 6123, "\u2581Through": 6124, "\u2581church": 6125, "\u062c\u0646\u062a": 6126, "\u2581Bethel": 6127, "\u2581TO": 6128, "\u2581discipline": 6129, "\u2581happens": 6130, "\u2581rebel": 6131, "\u2581revive": 6132, "\u2581submissive": 6133, "\u2581x": 6134, "\u2581View": 6135, "\u2581\u062a\u062f\u0628\u06cc\u0631\u06cc\u06ba": 6136, "\u2581smoke": 6137, "\u2581ungodly": 6138, "\u2581\u0627\u0637\u0644\u0627\u0639": 6139, "\u2581\u0639\u062c\u0628": 6140, "\u2581\u0646\u0627\u0628\u0648\u062f": 6141, "\u2581\u067e\u0627\u0626\u0646\u06cc\u0631": 6142, "\u2581\u06a9\u0631\u0633\u06a9\u06d2": 6143, "\u0679\u06be\u0646\u06d2": 6144, "\u258124:": 6145, "\u2581communities": 6146, "\u2581individual": 6147, "\u2581solemn": 6148, "\u2581\u0645\u0632\u062f\u0648\u0631\u06cc": 6149, "\u2581otherwise": 6150, "\u2581\u0622\u06af\u0626\u06d2": 6151, "\u0648\u0633\u0648\u0633\u06c1": 6152, "\u2581kings": 6153, "\u2581\u0628\u06be\u0631\u0627": 6154, "k": 6155, "\u0628\u0639\u0636": 6156, "\u0628\u06cc\u0639\u062a": 6157, "\u0633\u062e\u062a": 6158, "\u0633\u0645\u06cc\u06ba": 6159, "\u2581Think": 6160, "\u2581accomplish": 6161, "\u2581averted": 6162, "\u2581dreams": 6163, "\u2581waves": 6164, "\u2581\u0641\u0642\u06cc\u0631": 6165, "\u2581\u0646\u06a9\u0644\u0648": 6166, "\u2581\u067e\u06a9\u0627": 6167, "again": 6168, "\u0644\u06cc": 6169, "\u25819:": 6170, "\u2581adopt": 6171, "\u2581destined": 6172, "\u2581difference": 6173, "\u2581injury": 6174, "\u2581kingship": 6175, "\u2581maturity": 6176, "\u2581\u0627\u062f\u0628": 6177, "\u2581\u062c\u0627\u0645": 6178, "\u2581\u0645\u062a\u0627\u0639": 6179, "\u2581\u0645\u062f\u06cc\u0646\u06c1": 6180, "\u2581\u06a9\u0644\u0633\u06cc": 6181, "\u0627\u0626": 6182, "\u2581fasting": 6183, "\u2581grows": 6184, "\u2581\u0628\u062f\u0628\u062e\u062a": 6185, "\u2581\u0628\u0646\u0627\u0644\u06cc\u0627": 6186, "\u2581\u062e\u0627\u0646\u06d2": 6187, "\u2581\u0641\u0644\u067e\u06cc\u0648\u06ba": 6188, "\u2581\u0645\u06cc\u0633\u0631": 6189, "\u2581Arabs": 6190, "\u2581commits": 6191, "\u2581heir": 6192, "\u2581inner": 6193, "\u2581passing": 6194, "\u2581station": 6195, "\u2581\u0628\u0627\u0646\u062c\u06be": 6196, "\u2581\u067e\u06be\u0646\u0633": 6197, "\u0645\u06cc\u0631\u06cc": 6198, "\u2581Knowledge": 6199, "\u2581admonish": 6200, "\u2581belongeth": 6201, "\u2581capacity": 6202, "\u2581insight": 6203, "\u2581leading": 6204, "\u2581meant": 6205, "\u2581\u063a\u0644\u0627\u0645\u0648\u06ba": 6206, "\u2581\u06c1\u0627\u0644": 6207, "\u2581highest": 6208, "\u2581lightened": 6209, "\u2581trusted": 6210, "\u2581\u0633\u0646\u06af\u0633\u0627\u0631": 6211, "\u2581\u06af\u0632\u0627\u0631\u06cc": 6212, "Even": 6213, "Jews": 6214, "\u062f\u0648": 6215, "\u2581image": 6216, "\u2581\u0633\u06a9\u0627": 6217, "\u2581\u0637\u0648\u06cc\u0644": 6218, "\u2581\u063a\u0631\u0648\u0628": 6219, "\u2581\u0641\u0631\u0648\u062a\u0646\u06cc": 6220, "\u2581\u0645\u0633\u062d": 6221, "\u2581\u0686\u0691\u06be\u0627": 6222, "\u2581Likewise": 6223, "\u2581Thamood": 6224, "\u2581doors": 6225, "\u2581original": 6226, "\u2581\u06c1\u0648\u0633\u06a9\u062a\u06d2": 6227, "trees": 6228, "\u2581Fight": 6229, "\u2581responded": 6230, "\u2581satisfied": 6231, "\u2581sweet": 6232, "\u2581\u0627\u0635\u062d\u0627\u0628": 6233, "\u2581\u062f\u06cc\u0646\u06cc": 6234, "\u2581\u0633\u0645\u062c\u06be\u0646\u0627": 6235, "\u2581\u0633\u06a9\u06be\u0627": 6236, "\u2581\u0636\u062f": 6237, "\u2581\u06f3\u06f8": 6238, "Torah": 6239, "\u0648\u0646": 6240, "\u2581La": 6241, "\u2581Night": 6242, "\u2581conditions": 6243, "\u2581interests": 6244, "\u2581youth": 6245, "\u2581\u0644\u06af\u0627\u0626\u06cc\u06ba": 6246, "\u2581\u0645\u0627\u0636\u06cc": 6247, "\u2581\u06a9\u06be\u062c\u0648\u0631\u0648\u06ba": 6248, "\u2581IN": 6249, "\u2581kindly": 6250, "\u2581pursue": 6251, "\u2581wear": 6252, "\u2581\u0631\u0636\u0627\u0645\u0646\u062f\u06cc": 6253, "\u2581\u0631\u06cc\u0632": 6254, "\u2581\u067e\u062a\u06d2": 6255, "\u2581\u06c1\u0648\u0627\u06d4": 6256, "\u0627\u0646\u06c1\u0648\u06ba": 6257, "\u2581referred": 6258, "\u2581\u0634\u0641\u06cc\u0642": 6259, "\u2581Creation": 6260, "\u2581buy": 6261, "\u2581seest": 6262, "\u2581slander": 6263, "\u2581\u062a\u0631\u06a9\u06c1": 6264, "\u2581\u062a\u0645\u0633\u062e\u0631": 6265, "\u2581\u0686\u0646\u06af\u06be\u0627\u0691": 6266, "\u2581awful": 6267, "\u2581eager": 6268, "\u2581inheritors": 6269, "\u2581rained": 6270, "\u2581\u0645\u0627\u0646\u06cc": 6271, "due": 6272, "not": 6273, "\u062f\u06cc\u06a9\u06be\u0648": 6274, "\u2581difficulty": 6275, "\u2581equals": 6276, "\u2581falling": 6277, "\u2581miles": 6278, "\u2581scales": 6279, "\u2581\u0627\u062c\u062f\u0627\u062f": 6280, "\u2581\u0644\u0691": 6281, "any": 6282, "\u062c\u0648\u0627\u0628": 6283, "\u2581Love": 6284, "\u2581engage": 6285, "\u2581practical": 6286, "\u2581treated": 6287, "\u2581\u062a\u0627\u0626\u06cc\u062f": 6288, "\u2581\u06af\u0648\u0646\u06af\u06d2": 6289, "See": 6290, "le": 6291, "\u2581breathed": 6292, "\u2581flock": 6293, "\u2581tribulation": 6294, "\u2581\u0627\u0648\u0631\u06c1\u0645": 6295, "\u2581\u0645\u062d\u062a\u0631\u0645": 6296, "\u2581\u067e\u06cc\u0627\u0633": 6297, "\u2581\u06af\u0631\u0645\u06cc": 6298, "\u0645\u0631\u062f\u0648\u062f": 6299, "\u2581danger": 6300, "\u2581earthquake": 6301, "\u2581tremendous": 6302, "\u2581\u0628\u06af\u0691": 6303, "\u2581\u0645\u063a\u0631\u0648\u0631": 6304, "\u2581\u067e\u0644\u0627\u0646": 6305, "\u2581\u0688\u0631\u0648\u06d4": 6306, "\u0627\u0626\u0642\u06c1": 6307, "\u2581red": 6308, "\u2581zakat": 6309, "\u2581\u0628\u0646\u062f\u06be\u0646": 6310, "\u2581\u0634\u06c1\u06cc\u062f": 6311, "\u2581\u0645\u0642\u0627\u0645\u0627\u062a": 6312, "\u2581\u0646\u0627\u0645\u0631\u0627\u062f": 6313, "\u2581\u0646\u06a9\u0644\u062a\u06cc": 6314, "\u062e\u0637\u0631\u0646\u0627\u06a9": 6315, "\u2581herein": 6316, "\u2581opening": 6317, "\u2581trumpet": 6318, "\u2581universe": 6319, "\u2581\u0628\u0627\u0631\u06cc\u06a9": 6320, "\u2581\u0639\u0644\u06cc": 6321, "\u2581approval": 6322, "\u2581key": 6323, "\u2581returning": 6324, "\u2581spreading": 6325, "\u2581\u0627\u06a9\u0679\u06be\u06d2": 6326, "\u2581\u0646\u0645\u0627": 6327, "\u2581\u0648\u0631\u0634\u0646": 6328, "\u2581Other": 6329, "\u2581arrogance": 6330, "\u2581foolish": 6331, "\u2581paths": 6332, "\u2581\u0628\u0646\u062a\u06d2": 6333, "\u2581\u0645\u0633\u062a": 6334, "\u2581\u0646\u0627\u0645\u0645\u06a9\u0646": 6335, "\u2581disputes": 6336, "\u2581mount": 6337, "\u2581progeny": 6338, "\u2581sects": 6339, "\u2581serpent": 6340, "\u2581week": 6341, "\u2581\u0644\u06cc\u062c\u0626\u06d2": 6342, "\u2581\u0686\u0627\u06c1": 6343, "\u25816,": 6344, "\u2581eventually": 6345, "\u2581foreign": 6346, "\u2581political": 6347, "\u2581\u0622\u0631\u0627\u0626\u0634": 6348, "\u2581\u062a\u0646\u06c1\u0627": 6349, "\u2581\u0644\u0627\u0679\u06be\u06cc": 6350, "\u2581\u067e\u0631\u0633\u062a": 6351, "\u0635\u0648\u0644": 6352, "\u2581Powerful": 6353, "\u2581compared": 6354, "\u2581concealed": 6355, "\u2581overtaken": 6356, "\u2581\u062a\u062d\u0645\u0644": 6357, "\u2581\u062a\u0633\u06a9\u06cc\u0646": 6358, "\u2581\u062a\u0642\u0631\u06cc\u0628": 6359, "\u2581\u0632\u0631\u062f": 6360, "\u2581Sulaiman": 6361, "\u2581studying": 6362, "\u2581\u0628\u0686\u062a\u06d2": 6363, "\u2581\u062e\u0648\u0634\u06cc\u0627\u06ba": 6364, "\u2581\u067e\u06be\u06cc\u0644\u0627\u0646\u06d2": 6365, "].\"": 6366, "\u062a\u0646\u0627": 6367, "\u2581degree": 6368, "\u2581\u0628\u0627\u0644\u0622\u062e\u0631": 6369, "\u2581\u0628\u0686\u0627\u0626\u06d2": 6370, "\u2581\u0631\u06c1\u0646\u0645\u0627": 6371, "\u2581\u0646\u06af\u0644": 6372, "\u2581\u0686\u0627\u06c1\u0626\u06cc\u06ba": 6373, "\u2581\u06a9\u0645\u0627": 6374, "\u067e\u0631": 6375, "\u258118.": 6376, "\u2581Forbearing": 6377, "\u2581attained": 6378, "\u2581bestows": 6379, "\u2581conveyed": 6380, "\u2581diverse": 6381, "\u2581spoils": 6382, "\u2581\u0628\u06cc\u0646": 6383, "x": 6384, "\u2581beliefs": 6385, "\u2581threat": 6386, "\u2581yield": 6387, "\u2581\u062a\u0646\u0628\u06cc\u06c1": 6388, "\u2581\u06a9\u062a\u0627": 6389, "true": 6390, "\u25819,": 6391, "\u2581magazine": 6392, "\u2581talking": 6393, "\u2581\u0645\u0648\u0633\u0645": 6394, "\u2581\u0646\u0634\u0627\u0646\u06c1": 6395, "do": 6396, "\u0626": 6397, "\u2581illustration": 6398, "\u2581middle": 6399, "\u2581\u0622\u067e\u06c1\u0646\u0686\u06d2": 6400, "\u2581\u062c\u0645\u0627\u0639\u062a\u06cc\u06ba": 6401, "\u2581\u06a9\u0646\u06af\u0646": 6402, "Alam": 6403, "\u0646\u06cc\u06a9": 6404, "\u2581attractive": 6405, "\u2581glorious": 6406, "\u2581resolve": 6407, "\u2581spending": 6408, "\u2581threatened": 6409, "\u2581\u0628\u062a\u0627\u062f": 6410, "\u2581\u0631\u0648\u0645\u06cc": 6411, "\u2581\u0642\u0627\u0631\u0648\u0646": 6412, "ity": 6413, "\u0641\u0631\u0639\u0648\u0646": 6414, "\u0645\u06cc": 6415, "\u2581hardened": 6416, "\u2581\u0633\u0627\u0624\u0644": 6417, "\u2581\u067e\u06be\u06cc\u0644\u0627\u0626\u06d2": 6418, "\u2581\u06f4\u06f5": 6419, "f": 6420, "\u2581Hall": 6421, "\u2581confront": 6422, "\u2581hot": 6423, "\u2581\u0627\u0631\u062a\u06a9\u0627\u0628": 6424, "\u2581\u062f\u06c1\u0634\u062a": 6425, "\u2581\u0646\u0635\u0627\u0631\u06cc": 6426, "\u2581More": 6427, "angels": 6428, "\u2581elder": 6429, "\u2581keys": 6430, "\u2581\u0639\u0648\u0627\u0645": 6431, "\u2581Similarly": 6432, "\u2581acting": 6433, "\u2581captives": 6434, "\u2581car": 6435, "\u2581oppression": 6436, "\u2581\u0628\u0644\u0627\u0626\u06cc\u06ba": 6437, "Worship": 6438, "rs": 6439, "\u0627\u0686\u06be\u0627": 6440, "\u2581abandoned": 6441, "\u2581importance": 6442, "\u2581request": 6443, "\u2581\u0633\u06c1\u06cc": 6444, "\u2581\u0633\u06cc\u0627\u06c1\u06cc": 6445, "\u2581\u0634\u0646\u0627\u062e\u062a": 6446, "\u2581\u0645\u0635\u0631\u0648\u0641": 6447, "\u2581\u067e\u062a\u06be\u0631\u0648\u06ba": 6448, "\u2581atom": 6449, "\u2581entertainment": 6450, "\u2581\u0628\u0631\u06a9\u062a\u06cc\u06ba": 6451, "\u2581\u062d\u0633\u0631\u062a": 6452, "\u2581\u0646\u0633\u0644\u0648\u06ba": 6453, "\u2581\u067e\u0631\u0648\u0627": 6454, "\u0628\u0691\u06cc": 6455, "\u258117:": 6456, "\u2581obligation": 6457, "\u2581purifie": 6458, "\u2581requital": 6459, "\u2581revives": 6460, "\u2581township": 6461, "\u2581\u0642\u0635\u062f": 6462, "\u2581\u0688\u0631\u06cc\u06ba": 6463, "Iesa": 6464, "\u0637\u06cc\u0639": 6465, "\u2581active": 6466, "\u2581bewitched": 6467, "\u2581harsh": 6468, "\u2581neglect": 6469, "\u2581realise": 6470, "\u2581suppose": 6471, "\u2581swore": 6472, "\u2581\u0622\u0632\u0645\u0627\u06cc\u0627": 6473, "\u2581\u0627\u0645\u062b\u0627": 6474, "\u2581\u0637\u06d2\u0634\u062f\u06c1": 6475, "\u2581\u067e\u06be\u0631\u0646\u06d2": 6476, "\u2581Firon": 6477, "\u2581bed": 6478, "\u2581cool": 6479, "\u2581top": 6480, "\u2581\u06a9\u0631\u0631\u06c1\u0627": 6481, "\u2581Babylon": 6482, "\u2581immorality": 6483, "\u2581produces": 6484, "\u2581usually": 6485, "\u2581vengeance": 6486, "\u2581\u0627\u062e\u062a\u06cc\u0627\u0631\u0627\u062a": 6487, "\u2581\u0632\u062e\u0645": 6488, "\u2581\u0646\u0645\u0648\u0646\u06d2": 6489, "rate": 6490, "\u2581absence": 6491, "\u2581disbeliever": 6492, "\u2581scourge": 6493, "\u2581wast": 6494, "\u2581expected": 6495, "\u2581interested": 6496, "\u2581recit": 6497, "\u2581\u0642\u06cc\u062f\u06cc": 6498, "\u2581\u0645\u0627\u0646\u06d2": 6499, "\u2581\u0645\u062e\u0644\u0635": 6500, "\u2581\u0648\u06cc\u0633\u06cc": 6501, "\u2581\u06af\u0646\u0627": 6502, "\u2581\u06cc\u0634\u0648\u0639": 6503, "\u2581compress": 6504, "\u2581m": 6505, "\u2581prohibited": 6506, "\u2581\u0646\u0638\u0631\u0648\u06ba": 6507, "\u2581\u0646\u06cc\u0686\u06cc": 6508, "gods": 6509, "\u2581comprehend": 6510, "\u2581\u0641\u0631\u0645\u0627\u062f\u0648": 6511, "\u00b7": 6512, "\u2581Forgiver": 6513, "\u2581cultivate": 6514, "\u2581poured": 6515, "\u2581\u0627\u0646\u062f\u06be\u06cc\u0631\u06cc": 6516, "\u2581\u062c\u06a9\u0691": 6517, "\u2581\u067e\u0637\u0631": 6518, "R": 6519, "\u2581goals": 6520, "\u2581search": 6521, "\u2581sinner": 6522, "\u2581\u0627\u0645": 6523, "\u2581\u0628\u06cc\u0634": 6524, "\u2581\u06c1\u0645\u0648\u0627\u0631": 6525, "\u0646\u062f\u06be\u0648\u06ba": 6526, "\u2581Archive": 6527, "\u2581wages": 6528, "\u2581\u0634\u0648\u06c1\u0631\u0648\u06ba": 6529, "\u2581\u0645\u0642\u0627\u0628\u0644": 6530, "\u2581Master": 6531, "\u2581Two": 6532, "\u2581recognized": 6533, "\u2581spouse": 6534, "\u2581wipe": 6535, "\u2581\u0627\u0679\u06be": 6536, "\u2581\u0645\u0686\u0627": 6537, "aib": 6538, "\u2581band": 6539, "\u2581sacrifices": 6540, "\u2581\u0627\u062e\u0628\u0627\u0631": 6541, "\u2581\u0644\u064a\u06d2": 6542, "\u2581\u0679\u06a9\u0691\u0627": 6543, ";\"": 6544, "\u0639\u0644\u0645": 6545, "\u0644\u06c1": 6546, "\u25815,": 6547, "\u2581engaged": 6548, "\u2581obligatory": 6549, "\u2581rent": 6550, "\u2581\u062a\u0631\u0633": 6551, "\u2581\u062c\u0627\u0626\u06cc\u06af\u0627": 6552, "\u2581\u062c\u0645\u0627": 6553, "\u2581\u062f\u06a9\u06be\u0627\u0624": 6554, "\u2581\u0641\u0644": 6555, "\u2581\u067e\u0627\u062f\u0631\u06cc": 6556, "\u2581\u06cc\u0648\u0645": 6557, "our": 6558, "\u0648\u0614\u0639": 6559, "\u2581extract": 6560, "\u2581opposite": 6561, "\u2581teaches": 6562, "\u2581\u0688\u0627\u0644\u0646\u0627": 6563, "\u2581surface": 6564, "\u2581t": 6565, "\u2581wandering": 6566, "\u2581\u067e\u0627\u0628\u0646\u062f": 6567, "\u2581\u067e\u06be\u06cc\u0631\u0627": 6568, "v": 6569, "\u2581Tar": 6570, "\u2581agreement": 6571, "\u2581deserve": 6572, "\u2581developed": 6573, "\u2581endurance": 6574, "\u2581exist": 6575, "\u2581finds": 6576, "\u2581horses": 6577, "\u2581rebelled": 6578, "\u0645\u0632\u06cc\u062f": 6579, "\u2581forbids": 6580, "\u2581press": 6581, "\u2581strange": 6582, "\u2581torn": 6583, "\u2581\u0622\u0645\u06cc\u0632": 6584, "\u2581\u0633\u0627\u0626\u0646\u0633": 6585, "\u2581\u0633\u062a\u0631": 6586, "\u2581\u0645\u0648\u062c": 6587, "U": 6588, "\u2581Ephesians": 6589, "\u2581haste": 6590, "\u2581issues": 6591, "\u2581\u0622\u062c\u0627\u0624": 6592, "\u2581\u0622\u0646\u0633\u0648": 6593, "\u2581\u0648\u0631\u0632\u06cc": 6594, "\u0628\u0627\u0644\u062e\u0635\u0648\u0635": 6595, "\u0648\u0644": 6596, "\u2581healing": 6597, "\u2581wild": 6598, "\u2581\u0627\u0641\u0631\u06cc\u0642\u06c1": 6599, "\u2581\u062a\u0628\u062f\u06cc\u0644\u06cc\u0627\u06ba": 6600, "\u2581\u0686\u0627\u0644\u06cc\u0633": 6601, "\u0633\u0646": 6602, "\u2581Ar": 6603, "\u2581discuss": 6604, "\u2581\u0624": 6605, "\u2581\u0628\u062a": 6606, "\u2581\u0633\u062a\u06be\u0631\u06cc": 6607, "\u0641\u0631\u0634\u062a\u0648\u06ba": 6608, "\u0646\u0645\u0627\u0632": 6609, "\u06cc\u0636": 6610, "\u2581Alone": 6611, "\u2581Nevertheless": 6612, "\u2581inherited": 6613,
[...]
